[PAD]	0
[UNK]	0
[BOS]	0
[EOS]	0
▁이	-0
에서	-1
▁1	-2
▁있	-3
으로	-4
▁2	-5
▁그	-6
▁사	-7
▁수	-8
▁하	-9
▁아	-10
▁시	-11
▁대	-12
▁기	-13
이다	-14
▁가	-15
▁나	-16
▁지	-17
▁전	-18
▁한	-19
▁3	-20
▁20	-21
▁있다	-22
▁다	-23
▁보	-24
었다	-25
하는	-26
지만	-27
▁제	-28
▁중	-29
▁스	-30
▁A	-31
▁B	-32
▁일	-33
▁S	-34
▁것	-35
▁모	-36
▁유	-37
▁마	-38
▁곡	-39
▁자	-40
▁때	-41
▁4	-42
er	-43
▁정	-44
▁D	-45
..	-46
▁등	-47
▁상	-48
한다	-49
▁주	-50
▁경	-51
▁-	-52
▁C	-53
in	-54
▁비	-55
▁T	-56
▁공	-57
00	-58
▁카	-59
▁부	-60
▁M	-61
▁개	-62
▁않	-63
▁없	-64
▁만	-65
on	-66
▁해	-67
▁인	-68
▁오	-69
▁미	-70
▁E	-71
되었다	-72
▁어	-73
▁소	-74
▁(	-75
▁영	-76
▁구	-77
▁201	-78
▁5	-79
▁발	-80
an	-81
▁무	-82
레이	-83
했다	-84
th	-85
▁위	-86
▁I	-87
▁:	-88
이라	-89
▁국	-90
▁여	-91
하고	-92
▁동	-93
▁작	-94
▁F	-95
▁있는	-96
or	-97
▁때문	-98
▁게	-99
▁'	-100
▁연	-101
▁생	-102
▁바	-103
된다	-104
에는	-105
▁노	-106
▁G	-107
까지	-108
ar	-109
에서는	-110
▁리	-111
▁조	-112
▁7	-113
▁사용	-114
▁19	-115
▁참	-116
▁고	-117
▁P	-118
▁8	-119
▁최	-120
▁되	-121
▁후	-122
▁6	-123
▁내	-124
▁장	-125
▁더	-126
▁카드	-127
▁도	-128
▁프	-129
▁H	-130
▁세	-131
▁방	-132
▁때문에	-133
▁선	-134
st	-135
▁많	-136
▁R	-137
▁패	-138
en	-139
▁수록	-140
at	-141
▁당	-142
▁9	-143
▁버	-144
▁원	-145
니다	-146
▁안	-147
ou	-148
▁같	-149
▁특	-150
▁파	-151
부터	-152
▁거	-153
▁지방	-154
▁L	-155
들어	-156
▁의	-157
으며	-158
▁포	-159
▁라	-160
▁적	-161
le	-162
▁지방도	-163
▁서	-164
▁우	-165
▁신	-166
▁진	-167
스트	-168
▁한다	-169
▁실	-170
al	-171
▁문	-172
re	-173
하게	-174
였다	-175
▁플	-176
▁10	-177
하면	-178
▁등장	-179
...	-180
▁성	-181
▁매	-182
하다	-183
▁게임	-184
▁분	-185
▁나오	-186
▁단	-187
들이	-188
적으로	-189
에게	-190
▁불	-191
▁출	-192
는데	-193
▁따	-194
▁차	-195
▁코	-196
리즈	-197
▁경우	-198
▁결	-199
▁이후	-200
▁초	-201
▁말	-202
되어	-203
▁타	-204
적인	-205
▁통	-206
▁강	-207
▁에	-208
▁편	-209
▁국도	-210
▁200	-211
▁난	-212
▁드	-213
라는	-214
기도	-215
▁쓰	-216
▁시리즈	-217
▁알	-218
해서	-219
▁"	-220
▁역	-221
거리	-222
▁관	-223
대로	-224
▁달	-225
▁추	-226
▁데	-227
▁예	-228
▁N	-229
▁현	-230
앨범	-231
▁th	-232
▁계	-233
하여	-234
▁레	-235
▁하나	-236
▁W	-237
▁본	-238
▁두	-239
리고	-240
▁올	-241
ic	-242
▁배	-243
▁O	-244
▁K	-245
▁남	-246
▁패턴	-247
▁앨범	-248
▁메	-249
이도	-250
it	-251
면서	-252
▁플레이	-253
▁물	-254
▁함	-255
ing	-256
▁반	-257
▁들어	-258
▁채	-259
으나	-260
▁m	-261
▁명	-262
도로	-263
이나	-264
▁재	-265
▁표	-266
▁목	-267
는다	-268
에도	-269
is	-270
▁또	-271
▁다른	-272
▁좋	-273
▁프로	-274
▁V	-275
▁디	-276
▁이름	-277
▁클	-278
▁구간	-279
▁약	-280
이지	-281
▁음	-282
▁교	-283
▁처	-284
▁일본	-285
▁12	-286
▁사람	-287
▁트	-288
라고	-289
ion	-290
▁크	-291
▁아니	-292
▁t	-293
▁영상	-294
▁돌	-295
▁평	-296
▁종	-297
es	-298
▁b	-299
▁같은	-300
▁받	-301
보다	-302
el	-303
▁못	-304
하기	-305
▁가능	-306
▁저	-307
ro	-308
▁난이도	-309
▁합	-310
▁된다	-311
▁J	-312
am	-313
▁하지만	-314
▁시작	-315
이트	-316
▁the	-317
지는	-318
20	-319
▁11	-320
ac	-321
▁당시	-322
하였다	-323
▁건	-324
▁s	-325
▁화	-326
▁변	-327
▁설	-328
▁o	-329
다가	-330
▁발매	-331
ig	-332
▁w	-333
▁피	-334
▁번	-335
▁나온	-336
▁그리고	-337
기에	-338
▁높	-339
▁속	-340
▁없다	-341
he	-342
▁0	-343
에서도	-344
▁대한	-345
▁활	-346
▁회	-347
▁점	-348
들은	-349
▁할	-350
▁로	-351
되었	-352
▁제작	-353
들을	-354
▁입	-355
되는	-356
ay	-357
om	-358
▁버전	-359
ve	-360
이라는	-361
▁요	-362
▁나오는	-363
▁항	-364
▁하는	-365
as	-366
MA	-367
리는	-368
하지	-369
et	-370
▁작곡	-371
았다	-372
▁맞	-373
▁존	-374
▁확	-375
▁지방도와	-376
▁운	-377
▁감	-378
▁승	-379
▁공격	-380
▁잘	-381
▁따라	-382
기를	-383
▁것이	-384
il	-385
능력	-386
이스	-387
들의	-388
▁팀	-389
하며	-390
▁외	-391
▁보면	-392
▁한국	-393
▁되었다	-394
▁각	-395
ed	-396
▁느	-397
▁치	-398
▁f	-399
ow	-400
▁캐	-401
▁순	-402
▁U	-403
▁싱	-404
▁판	-405
이며	-406
▁베	-407
▁총	-408
기가	-409
▁of	-410
▁함께	-411
습니다	-412
ad	-413
▁미국	-414
▁완	-415
ht	-416
▁사실	-417
▁현재	-418
▁애	-419
▁뒤	-420
▁직	-421
▁d	-422
어서	-423
▁첫	-424
스터	-425
▁국도와	-426
이드	-427
▁c	-428
▁커	-429
▁테	-430
...)	-431
▁호	-432
리에서	-433
▁걸	-434
▁많이	-435
▁참고	-436
ol	-437
이라고	-438
▁필	-439
id	-440
▁폭	-441
▁기타	-442
-1	-443
▁심	-444
and	-445
▁브	-446
▁BG	-447
▁과	-448
▁상당	-449
▁없는	-450
▁16	-451
▁처음	-452
(...)	-453
▁DJ	-454
▁및	-455
미지	-456
▁볼	-457
▁정도	-458
다는	-459
ir	-460
▁이상	-461
▁아이	-462
▁끝	-463
▁키	-464
ER	-465
▁페	-466
▁그래	-467
▁해당	-468
▁15	-469
▁모두	-470
▁간	-471
처럼	-472
▁형	-473
▁Y	-474
▁금	-475
▁능력	-476
▁가장	-477
▁생물	-478
un	-479
▁손	-480
▁개발	-481
▁생각	-482
번째	-483
▁레이	-484
▁모든	-485
/1	-486
▁토	-487
이었	-488
▁199	-489
▁그러	-490
▁자신	-491
▁양	-492
▁날	-493
▁싱글	-494
▁체	-495
거나	-496
아가	-497
▁문제	-498
▁존재	-499
이지만	-500
▁넘	-501
▁블	-502
▁히	-503
▁부분	-504
차로	-505
▁문서	-506
▁추가	-507
년에	-508
▁언	-509
거리에서	-510
운드	-511
▁상대	-512
▁독	-513
▁용	-514
▁작품	-515
▁네	-516
▁위해	-517
▁다만	-518
▁X	-519
▁또한	-520
▁자체	-521
▁박	-522
▁충	-523
▁했	-524
▁다시	-525
▁했다	-526
라이	-527
민국	-528
▁앞	-529
▁참조	-530
▁빠	-531
▁EX	-532
▁대회	-533
im	-534
▁마나	-535
호선	-536
▁광	-537
▁St	-538
nd	-539
▁새	-540
인지	-541
),	-542
▁음악	-543
▁투	-544
▁y	-545
가지	-546
▁a	-547
▁BGA	-548
다고	-549
▁길	-550
▁수록곡	-551
지고	-552
▁있었	-553
▁다음	-554
us	-555
▁업	-556
릭터	-557
으면	-558
비트	-559
레벨	-560
▁비슷	-561
▁선수	-562
▁노트	-563
ver	-564
▁듯	-565
가는	-566
▁사이	-567
므로	-568
ra	-569
▁살	-570
▁그런	-571
▁n	-572
▁리그	-573
▁악	-574
▁탄	-575
되지	-576
부분	-577
▁노래	-578
▁효	-579
▁세계	-580
기는	-581
000	-582
▁여러	-583
▁않는다	-584
ight	-585
▁힘	-586
지막	-587
ent	-588
▁물론	-589
▁만들어	-590
스의	-591
▁줄	-592
리를	-593
▁13	-594
▁대한민국	-595
ut	-596
▁별	-597
▁되어	-598
ec	-599
▁매우	-600
▁스타	-601
▁열	-602
▁기록	-603
니아	-604
▁to	-605
▁붙	-606
이는	-607
▁18	-608
NI	-609
▁아닌	-610
ot	-611
▁청	-612
▁시즌	-613
▁교차	-614
▁캐릭터	-615
▁엔	-616
▁라이	-617
▁담	-618
리가	-619
이고	-620
▁죽	-621
▁상당히	-622
▁산	-623
▁진행	-624
ce	-625
▁야	-626
▁바로	-627
▁있었다	-628
▁밀	-629
▁마지막	-630
▁있으며	-631
▁김	-632
인데	-633
졌다	-634
um	-635
▁레벨	-636
od	-637
▁30	-638
▁많은	-639
멤버	-640
▁것을	-641
▁you	-642
▁왕	-643
▁일반	-644
▁거의	-645
em	-646
MAX	-647
▁우승	-648
▁북	-649
▁만들	-650
하자	-651
리어	-652
▁채보	-653
▁것으로	-654
▁멤버	-655
▁The	-656
ch	-657
▁근	-658
▁너	-659
▁컨	-660
로는	-661
▁결국	-662
▁분기	-663
▁상태	-664
▁항목	-665
인다	-666
▁나왔	-667
▁덱	-668
▁보컬	-669
▁활동	-670
시아	-671
하면서	-672
▁것이다	-673
▁들	-674
▁이런	-675
RE	-676
▁전투	-677
리아	-678
▁만나	-679
▁일부	-680
▁h	-681
▁14	-682
▁통해	-683
ag	-684
▁하고	-685
ST	-686
▁준	-687
사가	-688
▁2014	-689
▁원래	-690
▁이용	-691
▁DJMAX	-692
▁취	-693
스가	-694
▁목록	-695
▁특히	-696
▁동시	-697
▁복	-698
위를	-699
▁의미	-700
▁삼	-701
▁역시	-702
에선	-703
▁기술	-704
▁l	-705
디오	-706
성이	-707
▁월	-708
기로	-709
▁2013	-710
▁큰	-711
일에	-712
자가	-713
201	-714
▁것은	-715
ID	-716
있다	-717
▁공식	-718
▁실제	-719
▁기준	-720
▁그러나	-721
▁아니라	-722
▁달리	-723
▁백	-724
▁창	-725
▁태	-726
되고	-727
▁방송	-728
▁참가	-729
ak	-730
▁개최	-731
▁곡이	-732
▁관련	-733
▁만든	-734
속도로	-735
▁나온다	-736
ur	-737
▁g	-738
▁하드	-739
르는	-740
진다	-741
▁유명	-742
▁이유	-743
50	-744
▁누	-745
▁풀	-746
▁보여	-747
▁루	-748
▁온	-749
▁기본	-750
▁내용	-751
▁제외	-752
▁군	-753
ack	-754
이션	-755
▁축	-756
린다	-757
밴드	-758
▁타이	-759
난다	-760
트로	-761
▁진출	-762
▁2012	-763
랜드	-764
▁연결	-765
▁그대로	-766
▁덕	-767
력이	-768
▁돌아가	-769
리지	-770
▁주로	-771
▁in	-772
▁이어	-773
▁있는데	-774
▁효과	-775
▁모습	-776
도가	-777
▁팬	-778
력을	-779
▁p	-780
▁꽤	-781
▁엄	-782
▁등장하는	-783
▁막	-784
▁올라	-785
▁전체	-786
▁대부분	-787
▁몇	-788
▁홈	-789
▁수도	-790
▁그렇	-791
▁합류	-792
이었다	-793
▁뜻	-794
▁터	-795
▁프로그	-796
▁행	-797
ri	-798
▁17	-799
▁도로	-800
▁갈	-801
▁드럼	-802
▁2011	-803
AL	-804
▁익	-805
▁매직	-806
▁시간	-807
▁하다	-808
).	-809
▁와	-810
▁잡	-811
▁제목	-812
삼거리에서	-813
os	-814
▁증	-815
스를	-816
해야	-817
▁그냥	-818
▁않고	-819
▁떨	-820
▁은	-821
▁상황	-822
10	-823
▁된	-824
▁여기	-825
▁좋은	-826
ix	-827
▁집	-828
▁대신	-829
▁198	-830
▁슈	-831
ter	-832
▁극	-833
했던	-834
▁해금	-835
.5	-836
▁/	-837
북도	-838
아서	-839
▁<	-840
▁아무	-841
AR	-842
▁같이	-843
▁후반	-844
ation	-845
▁찾	-846
리스	-847
▁느낌	-848
▁이전	-849
▁않은	-850
▁있어	-851
▁비트	-852
▁최초	-853
ON	-854
mm	-855
▁임	-856
과는	-857
▁높은	-858
▁않는	-859
▁포함	-860
▁지금	-861
▁be	-862
▁방식	-863
▁특징	-864
▁v	-865
▁넣	-866
▁소속	-867
▁잇	-868
▁유저	-869
▁100	-870
▁철	-871
스템	-872
▁가지고	-873
48	-874
프트	-875
200	-876
▁범	-877
▁워	-878
▁In	-879
▁쉽	-880
▁탑	-881
▁학	-882
▁데미지	-883
▁얼	-884
▁BE	-885
▁곡의	-886
▁대표	-887
▁곡을	-888
곡으로	-889
고속도로	-890
RA	-891
if	-892
▁주의	-893
▁위치	-894
있는	-895
▁2010	-896
ab	-897
▁클리어	-898
CG	-899
더링	-900
▁되는	-901
▁어려	-902
▁필요	-903
."	-904
60	-905
▁쓸	-906
어로	-907
ul	-908
▁25	-909
▁좀	-910
▁탈	-911
어나	-912
트를	-913
▁공개	-914
▁있고	-915
▁있지만	-916
▁검	-917
드는	-918
▁개더링	-919
▁시리즈의	-920
▁k	-921
지를	-922
▁수록되었다	-923
콤보	-924
▁떨어	-925
테이지	-926
▁헤	-927
all	-928
▁22	-929
▁엘	-930
ast	-931
하지만	-932
.2	-933
▁천	-934
▁24	-935
▁구성	-936
▁허	-937
▁수준	-938
▁인해	-939
▁구간은	-940
▁절	-941
교차로	-942
▁시스템	-943
▁가능하다	-944
IC	-945
▁얻	-946
ill	-947
▁밴드	-948
▁담당	-949
▁종료	-950
▁먹	-951
시키	-952
▁퍼	-953
▁등의	-954
▁지나	-955
로운	-956
▁참고로	-957
▁돌아가기	-958
EC	-959
이기	-960
▁곡이다	-961
▁글	-962
▁낮	-963
▁케	-964
으니	-965
▁마법	-966
▁주인	-967
이터	-968
▁Ch	-969
▁있을	-970
▁초반	-971
one	-972
들에게	-973
▁이번	-974
▁즉	-975
년대	-976
뮤직	-977
▁병	-978
ort	-979
▁회사	-980
▁않았다	-981
ap	-982
.1	-983
▁경기	-984
같은	-985
라인	-986
AN	-987
렸다	-988
하였	-989
▁되었	-990
▁이것	-991
▁참여	-992
▁싶	-993
트가	-994
▁모델	-995
▁정보	-996
▁You	-997
게임	-998
▁사운드	-999
▁플레이어	-1000
▁Z	-1001
▁다르	-1002
ia	-1003
▁접	-1004
art	-1005
▁목록으로	-1006
▁눈	-1007
▁지역	-1008
▁지하	-1009
▁TCG	-1010
림픽	-1011
면을	-1012
기의	-1013
▁계속	-1014
▁많다	-1015
▁비슷한	-1016
▁국내	-1017
▁분위	-1018
.)	-1019
AC	-1020
▁이식	-1021
▁프로그램	-1022
-2	-1023
▁식	-1024
▁국가	-1025
▁스크	-1026
▁형태	-1027
!!	-1028
30	-1029
▁골	-1030
자인	-1031
▁비해	-1032
▁+	-1033
▁영국	-1034
▁중첩	-1035
▁판매	-1036
▁슬	-1037
믹스	-1038
시간	-1039
▁2015	-1040
라도	-1041
보면	-1042
ove	-1043
▁보스	-1044
▁만나며	-1045
▁잠	-1046
▁환	-1047
사일	-1048
▁최고	-1049
몬스터	-1050
.0	-1051
19	-1052
전히	-1053
OS	-1054
ev	-1055
▁러	-1056
▁좌	-1057
▁것도	-1058
▁지원	-1059
▁색	-1060
▁자주	-1061
▁and	-1062
▁쉬	-1063
에서의	-1064
▁뉴	-1065
▁벌	-1066
드로	-1067
▁변경	-1068
▁예선	-1069
▁평가	-1070
입니다	-1071
명이	-1072
이가	-1073
▁st	-1074
▁프랑	-1075
으로는	-1076
▁일본의	-1077
▁알려	-1078
▁예정	-1079
▁최대	-1080
▁주인공	-1081
ie	-1082
▁곳	-1083
개의	-1084
밖에	-1085
▁사용하는	-1086
▁머	-1087
드를	-1088
들과	-1089
이자	-1090
▁않았	-1091
매니아	-1092
▁어느	-1093
▁중간	-1094
▁패턴이	-1095
와는	-1096
▁조금	-1097
▁출시	-1098
▁격	-1099
▁23	-1100
40	-1101
마다	-1102
▁이야	-1103
리그	-1104
▁기관	-1105
▁기체	-1106
▁독일	-1107
페이지	-1108
ance	-1109
▁보인다	-1110
▁이동	-1111
TA	-1112
▁밝	-1113
간다	-1114
리에	-1115
회전	-1116
▁경상	-1117
▁컴	-1118
▁생산	-1119
▁쓰는	-1120
EN	-1121
up	-1122
▁&	-1123
▁니	-1124
도록	-1125
성을	-1126
▁이미	-1127
▁40	-1128
▁기능	-1129
▁Sp	-1130
▁명의	-1131
▁시절	-1132
▁쿠	-1133
▁영화	-1134
▁이루	-1135
이기도	-1136
다운	-1137
주는	-1138
▁비교	-1139
▁몰	-1140
도의	-1141
사를	-1142
▁바뀌	-1143
▁정도로	-1144
▁맡	-1145
▁뿐	-1146
▁엑	-1147
▁중국	-1148
지가	-1149
▁보통	-1150
가능	-1151
마나	-1152
자는	-1153
ell	-1154
▁me	-1155
장을	-1156
IDX	-1157
▁곡으로	-1158
ep	-1159
ld	-1160
op	-1161
▁발표	-1162
▁어렵	-1163
▁녹	-1164
코어	-1165
했고	-1166
▁기존	-1167
▁스킬	-1168
/2	-1169
▁될	-1170
수가	-1171
ard	-1172
▁잇는	-1173
▁그래서	-1174
드가	-1175
▁선택	-1176
▁IIDX	-1177
▁둘	-1178
스크	-1179
중에	-1180
▁50	-1181
▁만난다	-1182
BS	-1183
▁떠	-1184
▁축구	-1185
▁클럽	-1186
까지는	-1187
분에	-1188
장이	-1189
▁An	-1190
▁자신의	-1191
KA	-1192
ss	-1193
▁까	-1194
▁압	-1195
▁쪽	-1196
▁팔	-1197
▁홍	-1198
▁황	-1199
드의	-1200
▁성능	-1201
▁차지	-1202
▁갖	-1203
▁민	-1204
▁봉	-1205
지도	-1206
▁스토	-1207
▁애니	-1208
▁엄청	-1209
▁베이스	-1210
▁곡은	-1211
▁버스	-1212
▁합류한다	-1213
▁e	-1214
▁너무	-1215
하기도	-1216
▁지하철	-1217
▁등장한다	-1218
▁롱	-1219
없이	-1220
▁주문	-1221
자를	-1222
▁서울	-1223
▁성공	-1224
▁인터	-1225
▁전부	-1226
▁출발	-1227
▁경우가	-1228
▁이미지	-1229
▁홈페이지	-1230
IN	-1231
▁먼	-1232
삭제	-1233
▁)	-1234
▁혼	-1235
명의	-1236
점이	-1237
▁발동	-1238
▁아케	-1239
AM	-1240
OL	-1241
▁센	-1242
▁팝	-1243
▁설정	-1244
▁들어가	-1245
ea	-1246
▁Bl	-1247
▁개인	-1248
▁써	-1249
사의	-1250
▁유닛	-1251
▁표기	-1252
다면	-1253
자의	-1254
▁데뷔	-1255
▁사건	-1256
▁카드를	-1257
▁괴	-1258
▁늘	-1259
▁21	-1260
▁장착	-1261
러스트	-1262
치는	-1263
ant	-1264
▁뽑	-1265
▁쿨	-1266
들도	-1267
리의	-1268
명을	-1269
치가	-1270
▁결정	-1271
▁싸	-1272
군의	-1273
▁월드	-1274
▁유일	-1275
▁2009	-1276
oc	-1277
ue	-1278
▁송	-1279
▁암	-1280
▁읽	-1281
서는	-1282
이크	-1283
인이	-1284
점을	-1285
▁마찬	-1286
▁채널	-1287
▁최종	-1288
▁트랙	-1289
년부터	-1290
▁몬스터	-1291
▁마찬가지	-1292
교차로에서	-1293
명은	-1294
어가	-1295
ive	-1296
▁대상	-1297
▁약간	-1298
▁하이	-1299
▁그런데	-1300
ine	-1301
▁없이	-1302
▁왕복	-1303
▁중반	-1304
▁타이틀	-1305
▁26	-1306
▁피해	-1307
▁귀	-1308
▁과거	-1309
합니다	-1310
▁미사일	-1311
버전	-1312
▁스테이지	-1313
▁아케이드	-1314
만큼	-1315
였던	-1316
주시	-1317
▁위한	-1318
▁자세	-1319
▁난이도는	-1320
하나	-1321
▁이를	-1322
ly	-1323
▁친	-1324
▁빌	-1325
ide	-1326
▁같다	-1327
▁미션	-1328
▁삭제	-1329
▁Al	-1330
▁전용	-1331
▁프리	-1332
▁대한민국의	-1333
▁장르	-1334
▁현재는	-1335
지로	-1336
▁EZ	-1337
▁여담	-1338
▁콤보	-1339
▁수록된	-1340
▁카드가	-1341
산면	-1342
트의	-1343
▁Be	-1344
▁vs	-1345
▁일러스트	-1346
학교	-1347
▁나와	-1348
▁나타	-1349
▁명칭	-1350
▁파일	-1351
▁197	-1352
ge	-1353
동안	-1354
스타	-1355
-3	-1356
oo	-1357
▁혹	-1358
도를	-1359
▁목표	-1360
km	-1361
▁규	-1362
▁쓴	-1363
▁당연	-1364
▁정규	-1365
▁오리지	-1366
▁댄	-1367
▁32	-1368
▁SP	-1369
▁관계	-1370
MANI	-1371
ip	-1372
▁폴	-1373
경기	-1374
▁브라	-1375
▁적이	-1376
▁사실상	-1377
▁지방도이다	-1378
▁소환	-1379
▁이걸	-1380
▁표현	-1381
▁BEMANI	-1382
▁.	-1383
end	-1384
▁파괴	-1385
▁2016	-1386
ist	-1387
▁AC	-1388
▁결과	-1389
▁영어	-1390
▁하면	-1391
▁난이도가	-1392
▁권	-1393
나는	-1394
▁가격	-1395
▁동일	-1396
▁전작	-1397
▁아니다	-1398
▁있어서	-1399
▁대체	-1400
▁편이다	-1401
ES	-1402
▁Sh	-1403
▁방법	-1404
▁있다는	-1405
▁교차한다	-1406
▁뛰	-1407
▁AK	-1408
▁on	-1409
▁당신	-1410
▁돌아	-1411
▁직접	-1412
ct	-1413
▁챔	-1414
자로	-1415
▁정식	-1416
▁게다가	-1417
▁솔	-1418
▁울	-1419
이어	-1420
▁그것	-1421
▁처리	-1422
▁오브	-1423
▁찍	-1424
피언	-1425
ime	-1426
▁29	-1427
▁자동	-1428
멜로	-1429
와의	-1430
ate	-1431
ind	-1432
▁모드	-1433
▁차량	-1434
데이트	-1435
▁실제로	-1436
▁올림픽	-1437
▁유비트	-1438
11	-1439
▁망	-1440
▁콜	-1441
▁본선	-1442
▁정말	-1443
▁덕분에	-1444
▁오리지널	-1445
ey	-1446
▁짧	-1447
른다	-1448
▁HD	-1449
▁그룹	-1450
▁EXT	-1451
▁방어	-1452
▁카운	-1453
▁업데이트	-1454
▁희	-1455
하던	-1456
ere	-1457
▁27	-1458
▁육	-1459
▁Th	-1460
▁가진	-1461
▁도시	-1462
▁아래	-1463
되면서	-1464
▁2000	-1465
-4	-1466
RO	-1467
▁놓	-1468
▁질	-1469
치를	-1470
ong	-1471
▁2.	-1472
▁드래	-1473
▁발사	-1474
ect	-1475
▁31	-1476
▁my	-1477
▁의해	-1478
▁디자인	-1479
▁어려운	-1480
▁작곡가	-1481
PM	-1482
대의	-1483
▁결승	-1484
▁있던	-1485
AT	-1486
ub	-1487
개를	-1488
나마	-1489
수를	-1490
▁1,	-1491
▁강력	-1492
▁노선	-1493
▁등을	-1494
▁이쪽	-1495
▁일단	-1496
VE	-1497
▁굉	-1498
▁급	-1499
수록	-1500
▁배경	-1501
▁사랑	-1502
▁스페	-1503
했으며	-1504
▁챔피언	-1505
▁빨	-1506
▁즐	-1507
▁폐	-1508
리카	-1509
▁이는	-1510
ream	-1511
▁2008	-1512
▁법	-1513
▁티	-1514
상을	-1515
우스	-1516
▁경계	-1517
▁계열	-1518
되었으며	-1519
▁흑	-1520
오는	-1521
ers	-1522
▁대전	-1523
▁리듬	-1524
▁연구	-1525
▁자랑	-1526
▁90	-1527
▁아직	-1528
▁크게	-1529
라운드	-1530
ound	-1531
▁{	-1532
▁먼저	-1533
▁비행	-1534
▁for	-1535
주의	-1536
ain	-1537
▁28	-1538
▁지속	-1539
메이션	-1540
하는데	-1541
▁그래도	-1542
▁딱	-1543
age	-1544
▁전쟁	-1545
▁중요	-1546
▁핵	-1547
ure	-1548
▁계획	-1549
▁빠른	-1550
▁여성	-1551
▁듣	-1552
ust	-1553
▁등이	-1554
▁세트	-1555
▁영웅	-1556
▁운영	-1557
▁나왔다	-1558
▁잔	-1559
ith	-1560
▁1.	-1561
▁더블	-1562
▁멜로	-1563
▁클래	-1564
▁구간이	-1565
▁(201	-1566
▁콘	-1567
과이	-1568
▁굉장	-1569
▁엔진	-1570
▁조종	-1571
▁미국의	-1572
▁이루어	-1573
월에	-1574
음을	-1575
▁it	-1576
▁라는	-1577
▁리플	-1578
▁어떤	-1579
▁좋다	-1580
▁새로운	-1581
ome	-1582
▁Tr	-1583
▁뮤직	-1584
▁사진	-1585
▁아예	-1586
▁좋아	-1587
되었고	-1588
▁가능한	-1589
▁동시에	-1590
ik	-1591
▁#	-1592
▁라인	-1593
▁제품	-1594
▁사이트	-1595
▁프랑스	-1596
▁때문이다	-1597
/3	-1598
▁감독	-1599
▁모양	-1600
▁번째	-1601
▁않아	-1602
▁요구	-1603
▁출전	-1604
겠지만	-1605
▁경상북도	-1606
FA	-1607
OR	-1608
대를	-1609
사키	-1610
▁기반	-1611
▁성우	-1612
▁적용	-1613
▁초기	-1614
▁자세한	-1615
면과	-1616
▁그림	-1617
▁커맨	-1618
호선은	-1619
▁분기한다	-1620
(...).	-1621
▁끊	-1622
▁3.	-1623
▁제공	-1624
용으로	-1625
▁이름으로	-1626
유의	-1627
지어	-1628
▁또는	-1629
▁메인	-1630
▁역할	-1631
▁연타	-1632
▁여담으로	-1633
부에	-1634
스로	-1635
정이	-1636
▁내려	-1637
▁오프	-1638
전에서	-1639
▁BPM	-1640
▁카운터	-1641
15	-1642
▁CD	-1643
▁is	-1644
▁완성	-1645
▁해도	-1646
보다는	-1647
▁따라서	-1648
IX	-1649
보드	-1650
사는	-1651
are	-1652
▁도입	-1653
▁발생	-1654
▁보고	-1655
▁않다	-1656
▁운용	-1657
▁찾아	-1658
orld	-1659
▁사용할	-1660
▁사용한다	-1661
구간	-1662
하려	-1663
ark	-1664
▁FI	-1665
▁이렇	-1666
▁출연	-1667
▁한번	-1668
.(	-1669
▁칠	-1670
곡이	-1671
▁증가	-1672
▁혹은	-1673
▁동시치	-1674
▁마찬가지로	-1675
21	-1676
▁섞	-1677
어를	-1678
여서	-1679
위로	-1680
준다	-1681
화를	-1682
▁드라	-1683
▁이벤	-1684
▁있기	-1685
▁이름을	-1686
LL	-1687
og	-1688
었던	-1689
▁댄스	-1690
▁영향	-1691
으므로	-1692
▁멜로디	-1693
▁종료된다	-1694
-5	-1695
리와	-1696
전에	-1697
▁인간	-1698
▁표시	-1699
▁등장한	-1700
AS	-1701
▁흔	-1702
사로	-1703
장에	-1704
▁Re	-1705
▁부족	-1706
▁패턴은	-1707
▁프로젝	-1708
▁2018	-1709
?)	-1710
US	-1711
▁향	-1712
노트	-1713
되기	-1714
▁각각	-1715
▁활약	-1716
▁2017	-1717
▁기준으로	-1718
사거리에서	-1719
MP	-1720
듯이	-1721
이면	-1722
▁80	-1723
▁나머	-1724
▁그나마	-1725
▁꺼	-1726
▁링	-1727
▁몸	-1728
과의	-1729
▁메탈	-1730
▁언급	-1731
이었던	-1732
▁라이브	-1733
▁발매된	-1734
▁뭐	-1735
원이	-1736
정을	-1737
ity	-1738
▁Ar	-1739
▁바이	-1740
▁탑재	-1741
▁후속	-1742
▁맨	-1743
프로	-1744
ire	-1745
ore	-1746
▁아마	-1747
▁이게	-1748
▁형식	-1749
▁모습을	-1750
▁사람이	-1751
80	-1752
▁My	-1753
▁그리	-1754
▁여자	-1755
▁중심	-1756
ee	-1757
▁듀	-1758
갔다	-1759
대가	-1760
라면	-1761
▁강화	-1762
▁정확	-1763
▁출신	-1764
▁확인	-1765
▁Mix	-1766
OC	-1767
ww	-1768
▁동안	-1769
▁슈퍼	-1770
▁자켓	-1771
▁전혀	-1772
▁항공	-1773
▁굉장히	-1774
▁심지어	-1775
▁자체가	-1776
se	-1777
▁책	-1778
나더	-1779
위에	-1780
our	-1781
▁길이	-1782
▁활용	-1783
했지만	-1784
ther	-1785
▁온라인	-1786
oy	-1787
▁멀	-1788
▁휴	-1789
내는	-1790
만에	-1791
▁AP	-1792
▁만큼	-1793
이라면	-1794
▁불가능	-1795
▁스타일	-1796
▁어나더	-1797
▁유명한	-1798
-0	-1799
▁봐	-1800
▁풍	-1801
리오	-1802
시켜	-1803
▁나올	-1804
▁무덤	-1805
▁통과	-1806
▁하지	-1807
▁2006	-1808
▁2019	-1809
tp	-1810
▁긴	-1811
▁왜	-1812
▁사정	-1813
▁서로	-1814
▁선발	-1815
▁없어	-1816
▁여기서	-1817
▁제대로	-1818
//	-1819
12	-1820
ov	-1821
르고	-1822
부의	-1823
수로	-1824
▁힘들	-1825
▁능력을	-1826
▁애니메이션	-1827
IT	-1828
지지	-1829
orm	-1830
▁무기	-1831
▁배치	-1832
▁소련	-1833
▁유지	-1834
▁전라	-1835
▁크로	-1836
▁특이	-1837
▁표준	-1838
http	-1839
▁Pro	-1840
▁쿨다운	-1841
▁깨	-1842
고는	-1843
왔다	-1844
이란	-1845
정도	-1846
▁AM	-1847
▁승격	-1848
▁아르	-1849
▁게임을	-1850
▁리믹스	-1851
▁작곡은	-1852
ud	-1853
전을	-1854
ade	-1855
▁테크	-1856
▁특수	-1857
▁한글	-1858
-9	-1859
ED	-1860
▁논	-1861
군이	-1862
리티	-1863
수는	-1864
://	-1865
▁가정	-1866
▁그의	-1867
▁되고	-1868
▁사라	-1869
▁소재	-1870
▁아시	-1871
▁인물	-1872
▁자기	-1873
25	-1874
니까	-1875
러운	-1876
어난	-1877
▁라고	-1878
▁부여	-1879
▁어디	-1880
▁트릴	-1881
▁사거리	-1882
▁완전히	-1883
DJ	-1884
▁Q	-1885
▁끌	-1886
▁쇼	-1887
니카	-1888
man	-1889
▁달성	-1890
▁때는	-1891
▁받아	-1892
▁없고	-1893
▁연주	-1894
▁존재한다	-1895
az	-1896
sh	-1897
▁벨	-1898
▁턴	-1899
곡을	-1900
▁부활	-1901
▁장비	-1902
고속도로와	-1903
iv	-1904
ne	-1905
ry	-1906
인의	-1907
▁구조	-1908
▁스트	-1909
▁유니	-1910
▁유럽	-1911
▁하며	-1912
▁앞에서	-1913
▁면	-1914
됐다	-1915
만한	-1916
방송	-1917
▁당연히	-1918
▁출발한다	-1919
av	-1920
▁맥	-1921
이저	-1922
▁넘어	-1923
▁대해	-1924
▁북한	-1925
▁있게	-1926
▁조건	-1927
▁주요	-1928
▁충청	-1929
▁폭타	-1930
곡이다	-1931
33	-1932
▁묘	-1933
문에	-1934
세대	-1935
▁Cl	-1936
▁디지	-1937
▁어떻	-1938
▁한정	-1939
하거나	-1940
▁있다고	-1941
OP	-1942
▁=	-1943
▁똑	-1944
대한	-1945
르면	-1946
멘트	-1947
ood	-1948
▁AS	-1949
▁무난	-1950
▁번역	-1951
▁상위	-1952
▁서비	-1953
▁설치	-1954
▁소모	-1955
했으나	-1956
▁위해서	-1957
▁빼	-1958
는지	-1959
수의	-1960
적이	-1961
▁NM	-1962
▁SK	-1963
▁바람	-1964
▁방향	-1965
▁이외	-1966
▁컨셉	-1967
래프트	-1968
▁국도에	-1969
▁처음으로	-1970
▁갑	-1971
▁꿈	-1972
▁록	-1973
▁빅	-1974
▁옆	-1975
기와	-1976
비아	-1977
스토	-1978
eat	-1979
▁승리	-1980
▁어떻게	-1981
▁자체는	-1982
▁궁	-1983
들에	-1984
티브	-1985
화가	-1986
ord	-1987
yle	-1988
▁DD	-1989
▁It	-1990
▁Pl	-1991
▁개설	-1992
▁쉬운	-1993
▁작은	-1994
▁제한	-1995
레이션	-1996
▁196	-1997
▁공격력	-1998
▁그렇게	-1999
▁러시아	-2000
ex	-2001
▁측	-2002
▁퇴	-2003
라서	-2004
에만	-2005
퓨터	-2006
했을	-2007
ear	-2008
est	-2009
▁BM	-2010
▁Ex	-2011
▁FC	-2012
▁오른	-2013
▁이렇게	-2014
▁전체적으로	-2015
45	-2016
▁견	-2017
▁깔	-2018
영상	-2019
(?)	-2020
own	-2021
▁re	-2022
▁물건	-2023
▁순간	-2024
▁취급	-2025
▁파워	-2026
로부터	-2027
했는데	-2028
▁내용은	-2029
▁문제가	-2030
▁스크래	-2031
▁최초의	-2032
▁하나로	-2033
▁2007	-2034
ME	-2035
UN	-2036
티나	-2037
▁4.	-2038
▁MX	-2039
▁실패	-2040
▁테마	-2041
▁OST	-2042
▁버전이	-2043
▁스코어	-2044
▁움	-2045
▁착	-2046
르게	-2047
시킨	-2048
제가	-2049
체를	-2050
▁남아	-2051
▁다양	-2052
▁분류	-2053
▁채용	-2054
▁타입	-2055
▁이야기	-2056
▁제외한	-2057
회전하자	-2058
▁당시에는	-2059
35	-2060
남도	-2061
로그	-2062
릭스	-2063
지의	-2064
▁단순	-2065
▁마음	-2066
▁컨트	-2067
▁팝픈	-2068
▁경우도	-2069
▁있으나	-2070
qu	-2071
▁돈	-2072
▁숫	-2073
나이	-2074
시즌	-2075
웨이	-2076
▁번호	-2077
▁시점	-2078
▁데미지를	-2079
BC	-2080
었고	-2081
패턴	-2082
▁공연	-2083
▁따로	-2084
▁스탠	-2085
▁알고	-2086
▁최근	-2087
부터는	-2088
▁나머지	-2089
▁이름은	-2090
▁이름이	-2091
99	-2092
II	-2093
도는	-2094
로서	-2095
원을	-2096
▁블록	-2097
시키는	-2098
▁그래픽	-2099
▁겨	-2100
메달	-2101
인트	-2102
way	-2103
▁가까	-2104
▁이에	-2105
▁특성	-2106
(201	-2107
▁TEC	-2108
▁컴퓨터	-2109
랭크	-2110
지게	-2111
▁TV	-2112
▁국제	-2113
▁약자	-2114
더라도	-2115
▁나중에	-2116
▁다르게	-2117
▁이유는	-2118
크래프트	-2119
▁your	-2120
▁사람들이	-2121
▁샤	-2122
스는	-2123
포츠	-2124
▁움직	-2125
▁이탈	-2126
▁Com	-2127
▁강력한	-2128
▁아시안	-2129
▁특유의	-2130
▁(200	-2131
▁TECH	-2132
▁대부분의	-2133
90	-2134
FC	-2135
▁빈	-2136
▁헬	-2137
되며	-2138
로우	-2139
외로	-2140
ake	-2141
▁60	-2142
▁노멀	-2143
▁동계	-2144
▁쉽게	-2145
▁이러	-2146
▁작업	-2147
▁적은	-2148
,000	-2149
▁하였다	-2150
▁Dream	-2151
▁앤	-2152
▁옛	-2153
▁탐	-2154
나가	-2155
▁70	-2156
▁계단	-2157
▁위의	-2158
▁유사	-2159
▁전반	-2160
▁차트	-2161
▁등으로	-2162
HE	-2163
ll	-2164
답게	-2165
려서	-2166
해도	-2167
ame	-2168
▁중앙	-2169
▁하루	-2170
▁확장	-2171
면에서	-2172
▁중에서	-2173
▁왼	-2174
로드	-2175
리로	-2176
만이	-2177
먼트	-2178
사와	-2179
제로	-2180
▁3:	-2181
▁개통	-2182
▁목소	-2183
▁블랙	-2184
▁사망	-2185
▁설명	-2186
▁수가	-2187
▁이때	-2188
▁전에	-2189
▁추정	-2190
▁사용한	-2191
io	-2192
▁응	-2193
▁펜	-2194
디어	-2195
한테	-2196
히려	-2197
rom	-2198
▁까다	-2199
▁모던	-2200
▁익스	-2201
▁해서	-2202
에서만	-2203
▁커맨더	-2204
▁http	-2205
SS	-2206
uc	-2207
같이	-2208
물을	-2209
치로	-2210
▁CV	-2211
▁가끔	-2212
▁원작	-2213
▁확률	-2214
장으로	-2215
▁게이지	-2216
▁경우는	-2217
▁리플렉	-2218
▁보여주	-2219
이었으나	-2220
-7	-2221
TV	-2222
ky	-2223
▁꼬	-2224
▁던	-2225
개가	-2226
▁wh	-2227
▁기업	-2228
▁낮은	-2229
▁반응	-2230
▁배틀	-2231
했다고	-2232
able	-2233
▁만드는	-2234
▁오히려	-2235
22	-2236
ff	-2237
ob	-2238
▁겸	-2239
▁놀	-2240
▁뭔	-2241
▁옥	-2242
권을	-2243
났다	-2244
란드	-2245
러스	-2246
레스	-2247
▁IN	-2248
▁Un	-2249
▁불구	-2250
▁아티	-2251
▁후에	-2252
▁만들어진	-2253
▁꾸	-2254
▁웹	-2255
격을	-2256
대전	-2257
로도	-2258
상의	-2259
ess	-2260
▁다운	-2261
▁드러	-2262
▁원곡	-2263
되다가	-2264
▁부분이	-2265
▁비트매니아	-2266
▁*	-2267
▁침	-2268
▁협	-2269
나게	-2270
년도	-2271
라의	-2272
번호	-2273
산로	-2274
▁sh	-2275
▁각종	-2276
▁더욱	-2277
▁하여	-2278
▁이유로	-2279
▁있다면	-2280
▁피해를	-2281
▁Love	-2282
▁beat	-2283
1)	-2284
▁액	-2285
계를	-2286
그룹	-2287
량이	-2288
마법	-2289
세요	-2290
우는	-2291
▁35	-2292
▁he	-2293
▁가수	-2294
▁가져	-2295
▁스턴	-2296
▁자연	-2297
▁카메	-2298
이므로	-2299
▁i	-2300
▁끼	-2301
체가	-2302
크로	-2303
▁나름	-2304
▁소녀	-2305
▁하마	-2306
리스트	-2307
▁드라마	-2308
▁라디오	-2309
▁여기에	-2310
▁있으니	-2311
OT	-2312
rd	-2313
▁괜	-2314
▁칼	-2315
정한	-2316
ang	-2317
▁광고	-2318
▁꽤나	-2319
▁생명	-2320
▁전설	-2321
으로도	-2322
▁월드컵	-2323
▁제작한	-2324
▁불구하고	-2325
55	-2326
▁칭	-2327
▁훨	-2328
양이	-2329
적을	-2330
판이	-2331
히는	-2332
ass	-2333
▁Sc	-2334
▁남자	-2335
▁새로	-2336
▁요소	-2337
▁우리	-2338
▁유튜	-2339
▁전차	-2340
헨티나	-2341
▁컨트롤	-2342
▁빛	-2343
▁흡	-2344
장의	-2345
ile	-2346
▁TA	-2347
▁건담	-2348
▁뒤에	-2349
▁맞춰	-2350
▁작중	-2351
▁주는	-2352
▁훨씬	-2353
▁AKB	-2354
▁다음과	-2355
▁마스터	-2356
▁사람은	-2357
▁아이돌	-2358
▁TECHNI	-2359
44	-2360
▁석	-2361
▁7.	-2362
▁XG	-2363
▁강등	-2364
▁높다	-2365
▁만화	-2366
▁반복	-2367
▁부산	-2368
▁설립	-2369
▁순위	-2370
▁음반	-2371
▁이제	-2372
▁이하	-2373
▁일렉	-2374
▁폭발	-2375
▁히로	-2376
▁데이터	-2377
▁드래곤	-2378
▁브랜드	-2379
▁아니고	-2380
▁엄청난	-2381
▁여전히	-2382
▁카드의	-2383
▁사정거리	-2384
▁TECHNIKA	-2385
▁득	-2386
▁맵	-2387
▁섬	-2388
국의	-2389
▁개념	-2390
▁만약	-2391
▁트랜	-2392
▁확실	-2393
▁코멘트	-2394
▁2020	-2395
SP	-2396
na	-2397
말로	-2398
주로	-2399
ric	-2400
▁Me	-2401
▁기간	-2402
▁아주	-2403
▁주변	-2404
▁해외	-2405
▁두번째	-2406
▁시간이	-2407
▁아이템	-2408
▁없지만	-2409
▁인터넷	-2410
▁정도의	-2411
▁2003	-2412
▁묻	-2413
리기	-2414
이로	-2415
카드	-2416
▁En	-2417
▁받고	-2418
▁범위	-2419
▁DDR	-2420
▁역할을	-2421
PS	-2422
놓고	-2423
인을	-2424
ECT	-2425
▁가사	-2426
으로서	-2427
하다는	-2428
▁300	-2429
▁최초로	-2430
적으로는	-2431
▁드럼매니아	-2432
18	-2433
▁숨	-2434
▁얘	-2435
▁텍	-2436
피소	-2437
ial	-2438
▁38	-2439
▁AD	-2440
▁ST	-2441
▁Wh	-2442
▁되지	-2443
▁종류	-2444
▁환경	-2445
한다는	-2446
▁EXH	-2447
▁가정용	-2448
▁마법물	-2449
▁인기를	-2450
)'	-2451
70	-2452
▁홀	-2453
시의	-2454
이즈	-2455
ies	-2456
▁5.	-2457
▁ED	-2458
▁No	-2459
▁SC	-2460
▁기념	-2461
▁기동	-2462
▁나가	-2463
▁수는	-2464
년까지	-2465
레이드	-2466
루과이	-2467
▁나오지	-2468
▁오프닝	-2469
▁이러한	-2470
▁카드는	-2471
▁프로듀	-2472
▁했지만	-2473
▁유일하게	-2474
-6	-2475
ET	-2476
▁틀	-2477
은행	-2478
out	-2479
▁개량	-2480
▁듯한	-2481
▁몇몇	-2482
▁바꾸	-2483
▁아프	-2484
▁짧은	-2485
▁BGM	-2486
▁안드로	-2487
▁위치한	-2488
▁프로젝트	-2489
ew	-2490
▁갤	-2491
대는	-2492
리트	-2493
스탄	-2494
시에	-2495
장은	-2496
iss	-2497
▁거기	-2498
▁맞추	-2499
▁미니	-2500
▁일이	-2501
▁커버	-2502
▁코너	-2503
▁탈락	-2504
▁파이	-2505
년에는	-2506
점으로	-2507
....	-2508
▁문제는	-2509
▁자신이	-2510
▁하는데	-2511
AD	-2512
▁흥	-2513
놓은	-2514
비가	-2515
이를	-2516
지션	-2517
now	-2518
▁간단	-2519
▁달려	-2520
▁대지	-2521
▁본격	-2522
▁사업	-2523
▁아키	-2524
▁자유	-2525
▁진짜	-2526
▁체력	-2527
▁포맷	-2528
reet	-2529
▁For	-2530
▁KBS	-2531
▁에피소	-2532
▁유튜브	-2533
▁이벤트	-2534
▁시리즈에	-2535
▁연결되지	-2536
▁하마사키	-2537
▁엇	-2538
동을	-2539
▁CS	-2540
▁He	-2541
▁소총	-2542
▁조직	-2543
스트라	-2544
▁다양한	-2545
▁중요한	-2546
▁활동을	-2547
▁2004	-2548
▁2005	-2549
▁분기된다	-2550
▁아티스트	-2551
▁일반적인	-2552
iz	-2553
려고	-2554
리면	-2555
마트	-2556
ite	-2557
▁2,	-2558
▁괜찮	-2559
▁못한	-2560
▁부터	-2561
▁사기	-2562
▁엔딩	-2563
▁작가	-2564
▁장면	-2565
▁지상	-2566
▁철도	-2567
였으나	-2568
쪽으로	-2569
▁레이더	-2570
-8	-2571
스와	-2572
치고	-2573
per	-2574
▁고속	-2575
▁뉴욕	-2576
▁방영	-2577
▁언제	-2578
▁하위	-2579
일까지	-2580
플레이	-2581
▁And	-2582
▁개발한	-2583
▁나오고	-2584
▁있었던	-2585
▁중첩되다가	-2586
▁값	-2587
레인	-2588
부가	-2589
어버	-2590
ice	-2591
▁39	-2592
▁나는	-2593
▁역사	-2594
스러운	-2595
▁이상의	-2596
▁가능성이	-2597
▁r	-2598
▁낙	-2599
▁닥	-2600
▁샘	-2601
▁욕	-2602
▁획	-2603
개로	-2604
니티	-2605
레임	-2606
지면	-2607
천면	-2608
후반	-2609
ace	-2610
▁받은	-2611
▁베이	-2612
▁소개	-2613
▁않게	-2614
▁친구	-2615
▁패배	-2616
▁하기	-2617
▁THE	-2618
▁다르다	-2619
▁브라질	-2620
▁없었다	-2621
▁의외로	-2622
▁that	-2623
▁World	-2624
▁발매되었다	-2625
▁굳	-2626
▁썼	-2627
▁윈	-2628
대에	-2629
ple	-2630
▁37	-2631
▁마이	-2632
▁뭔가	-2633
▁유로	-2634
▁장갑	-2635
▁전국	-2636
▁피아	-2637
▁기타프	-2638
/4	-2639
23	-2640
IS	-2641
▁[	-2642
▁튀	-2643
소모	-2644
어도	-2645
특별	-2646
aby	-2647
ink	-2648
tle	-2649
▁GT	-2650
▁보는	-2651
▁비롯	-2652
▁얼굴	-2653
▁지정	-2654
▁코드	-2655
▁경기도	-2656
▁노트가	-2657
▁부르는	-2658
▁상당한	-2659
▁쓰이는	-2660
▁스크래치	-2661
17	-2662
36	-2663
IA	-2664
▁푸	-2665
리온	-2666
미의	-2667
블록	-2668
온다	-2669
eel	-2670
ous	-2671
▁Fl	-2672
▁PC	-2673
▁We	-2674
▁we	-2675
▁단어	-2676
▁밖에	-2677
▁발견	-2678
▁버튼	-2679
▁서고	-2680
▁우주	-2681
▁위키	-2682
▁전문	-2683
▁지구	-2684
▁지도	-2685
▁타카	-2686
▁회복	-2687
때문에	-2688
비디오	-2689
하였고	-2690
▁못했다	-2691
▁원래는	-2692
▁있습니다	-2693
ft	-2694
보니	-2695
았던	-2696
ron	-2697
▁45	-2698
▁6.	-2699
▁노브	-2700
▁위에	-2701
▁최다	-2702
▁충분	-2703
▁통상	-2704
▁못하고	-2705
▁경우에는	-2706
▁교차하나	-2707
▁팝픈뮤직	-2708
▁를	-2709
나다	-2710
리게	-2711
상이	-2712
일로	-2713
자기	-2714
천군	-2715
탄을	-2716
▁경쟁	-2717
▁대학	-2718
▁본래	-2719
▁인기	-2720
▁정신	-2721
▁특정	-2722
▁편곡	-2723
드에서	-2724
라이드	-2725
이라서	-2726
▁느낌이	-2727
▁받았다	-2728
▁스토리	-2729
▁with	-2730
▁중에서는	-2731
▁기타프릭스	-2732
AK	-2733
▁큐	-2734
세계	-2735
차가	-2736
ARD	-2737
ree	-2738
▁2:	-2739
▁up	-2740
▁금지	-2741
▁더불	-2742
▁볼텍	-2743
▁살아	-2744
▁생긴	-2745
▁입력	-2746
▁조별	-2747
▁종합	-2748
▁지난	-2749
▁코어	-2750
하다가	-2751
▁능력이	-2752
▁디지털	-2753
mania	-2754
▁수록되어	-2755
▁Dance	-2756
▁뮤직비디오	-2757
14	-2758
ph	-2759
▁넓	-2760
▁쌍	-2761
▁쳐	-2762
겠다	-2763
다니	-2764
모리	-2765
어진	-2766
없는	-2767
조건	-2768
erf	-2769
▁42	-2770
▁관광	-2771
▁무시	-2772
▁별로	-2773
▁비용	-2774
▁상승	-2775
▁실질	-2776
▁정상	-2777
▁파라	-2778
야말로	-2779
▁Con	-2780
▁Day	-2781
▁영향을	-2782
▁중간에	-2783
SL	-2784
VD	-2785
}{	-2786
일이	-2787
천시	-2788
com	-2789
▁96	-2790
▁가는	-2791
▁강한	-2792
▁그녀	-2793
▁무려	-2794
▁바뀐	-2795
▁받는	-2796
▁범용	-2797
▁연속	-2798
▁오래	-2799
▁이건	-2800
▁일종	-2801
▁해체	-2802
명으로	-2803
일부터	-2804
장에서	-2805
▁발매한	-2806
▁아시아	-2807
▁유일한	-2808
1,	-2809
ny	-2810
▁굴	-2811
▁앙	-2812
▁잃	-2813
▁잉	-2814
도시	-2815
들로	-2816
부로	-2817
우승	-2818
이버	-2819
인은	-2820
old	-2821
▁36	-2822
▁9.	-2823
▁PV	-2824
▁건물	-2825
▁느껴	-2826
▁의견	-2827
▁인도	-2828
▁재미	-2829
▁스마트	-2830
▁인기가	-2831
▁있으면	-2832
▁형태로	-2833
했습니다	-2834
▁기반으로	-2835
▁중첩된다	-2836
2)	-2837
OU	-2838
aw	-2839
te	-2840
▁멋	-2841
▁셈	-2842
▁탭	-2843
간에	-2844
미네	-2845
트는	-2846
ans	-2847
ook	-2848
ost	-2849
▁것과	-2850
▁다루	-2851
▁변형	-2852
▁솔로	-2853
▁통합	-2854
▁확정	-2855
레이터	-2856
해서는	-2857
▁이쪽은	-2858
PG	-2859
▁농	-2860
▁컬	-2861
▁흐	-2862
대교	-2863
드라	-2864
모토	-2865
스에	-2866
운데	-2867
음이	-2868
짜리	-2869
ITA	-2870
ick	-2871
▁결성	-2872
▁끝나	-2873
▁동방	-2874
▁야구	-2875
▁연재	-2876
▁인수	-2877
▁최소	-2878
▁획득	-2879
very	-2880
▁이후로	-2881
▁차이가	-2882
▁판매량	-2883
▁효과를	-2884
ition	-2885
▁FIFA	-2886
▁등장했다	-2887
▁아르헨티나	-2888
In	-2889
▁밤	-2890
ない	-2891
겼다	-2892
사카	-2893
철도	-2894
카이	-2895
타입	-2896
ody	-2897
▁Cy	-2898
▁독립	-2899
▁샘플	-2900
▁시험	-2901
▁에이	-2902
▁연출	-2903
▁있지	-2904
▁패러	-2905
▁더불어	-2906
▁사이에	-2907
▁Port	-2908
VA	-2909
▁,	-2910
▁윤	-2911
감을	-2912
기관	-2913
든지	-2914
색이	-2915
스턴	-2916
오프	-2917
팀이	-2918
irl	-2919
ish	-2920
▁44	-2921
▁De	-2922
▁so	-2923
▁가면	-2924
▁기사	-2925
▁동인	-2926
▁부르	-2927
▁속도	-2928
▁수상	-2929
▁스위	-2930
▁전자	-2931
▁can	-2932
▁알려져	-2933
▁첫번째	-2934
겠습니다	-2935
▁동시치기	-2936
OM	-2937
▁j	-2938
인물	-2939
제를	-2940
조차	-2941
지라	-2942
터널	-2943
했기	-2944
ave	-2945
mer	-2946
ock	-2947
ond	-2948
▁34	-2949
▁II	-2950
▁대응	-2951
▁말이	-2952
▁밝혀	-2953
▁쓰고	-2954
▁제거	-2955
▁종목	-2956
▁테러	-2957
▁토너	-2958
lect	-2959
▁기관차	-2960
▁목표로	-2961
▁특성상	-2962
스테이지	-2963
▁아니지만	-2964
AY	-2965
IG	-2966
롭게	-2967
스럽	-2968
전이	-2969
해보	-2970
행을	-2971
ION	-2972
▁근처	-2973
▁링크	-2974
▁미래	-2975
▁반면	-2976
▁사고	-2977
▁스파	-2978
▁외국	-2979
▁익숙	-2980
▁장소	-2981
난이도	-2982
▁상대방	-2983
▁최고의	-2984
▁이탈리아	-2985
▁안드로이드	-2986
LE	-2987
▁뜨	-2988
▁뮤	-2989
이니	-2990
자와	-2991
져서	-2992
초에	-2993
rum	-2994
▁가지	-2995
▁거쳐	-2996
▁고정	-2997
▁기억	-2998
▁기종	-2999
▁센터	-3000
▁없었	-3001
▁조합	-3002
기에는	-3003
되기도	-3004
레인지	-3005
삼거리	-3006
으면서	-3007
▁보이는	-3008
▁어렵다	-3009
▁지금은	-3010
▁트랜스	-3011
▁있었지만	-3012
75	-3013
kg	-3014
▁삽	-3015
▁숙	-3016
되면	-3017
이상	-3018
차원	-3019
ble	-3020
▁BB	-3021
▁관리	-3022
▁되면	-3023
▁듀얼	-3024
▁모르	-3025
▁시전	-3026
▁에너	-3027
▁작사	-3028
▁전환	-3029
▁진입	-3030
▁케이	-3031
버렸다	-3032
▁500	-3033
▁게임의	-3034
▁부른다	-3035
▁없어서	-3036
▁텍스트	-3037
▁보여준다	-3038
▁예정이다	-3039
▁스타크래프트	-3040
▁셀	-3041
▁츠	-3042
수한	-3043
움을	-3044
점은	-3045
▁Ed	-3046
▁TP	-3047
▁그려	-3048
▁로봇	-3049
▁설계	-3050
▁수송	-3051
▁예를	-3052
▁완전	-3053
▁유래	-3054
▁주고	-3055
▁충격	-3056
▁해결	-3057
스에서	-3058
었다고	-3059
▁(19	-3060
▁비교적	-3061
▁생물을	-3062
▁그야말로	-3063
▁스마트폰	-3064
▁beatmania	-3065
16	-3066
24	-3067
OD	-3068
PU	-3069
St	-3070
bl	-3071
me	-3072
sc	-3073
▁랜	-3074
▁퀄	-3075
랭킹	-3076
력은	-3077
바일	-3078
비를	-3079
선을	-3080
호를	-3081
회사	-3082
ERS	-3083
ian	-3084
oon	-3085
▁75	-3086
▁강원	-3087
▁그린	-3088
▁남성	-3089
▁무장	-3090
▁예상	-3091
▁인정	-3092
▁중에	-3093
▁타고	-3094
▁포르	-3095
▁플래	-3096
▁12.	-3097
▁기존의	-3098
▁따르면	-3099
▁마나를	-3100
▁이름의	-3101
▁이용한	-3102
▁전라북도	-3103
▁제외하면	-3104
!"	-3105
EM	-3106
동차	-3107
선이	-3108
즈키	-3109
▁On	-3110
▁개조	-3111
▁다소	-3112
▁등등	-3113
▁선보	-3114
▁실험	-3115
▁야마	-3116
▁적을	-3117
▁현실	-3118
까지의	-3119
사거리	-3120
올림픽	-3121
reak	-3122
▁쓰인다	-3123
▁프로토	-3124
▁난이도를	-3125
▁플레이할	-3126
▁Black	-3127
7)	-3128
CE	-3129
▁겹	-3130
▁캡	-3131
▁팩	-3132
세이	-3133
타가	-3134
▁59	-3135
▁PS	-3136
▁cl	-3137
▁달라	-3138
▁소설	-3139
▁악곡	-3140
▁않을	-3141
▁중단	-3142
▁크고	-3143
▁투입	-3144
▁특별	-3145
▁평범	-3146
했다는	-3147
▁AMD	-3148
▁Sup	-3149
▁스포츠	-3150
▁음악을	-3151
▁이들의	-3152
▁준우승	-3153
▁카드로	-3154
DO	-3155
▁짤	-3156
공격	-3157
든가	-3158
식을	-3159
신을	-3160
igh	-3161
ory	-3162
▁개그	-3163
▁닥터	-3164
▁속성	-3165
▁스테	-3166
▁시도	-3167
▁어드	-3168
▁역대	-3169
▁재판	-3170
▁해군	-3171
였지만	-3172
▁갑자기	-3173
▁외에도	-3174
▁하나를	-3175
▁2002	-3176
▁마나소모	-3177
▁마법물체	-3178
▁일렉트로	-3179
▁기본적으로	-3180
)"	-3181
31	-3182
pt	-3183
▁뒷	-3184
▁챌	-3185
▁펼	-3186
디아	-3187
무소	-3188
신이	-3189
전기	-3190
지에	-3191
형이	-3192
act	-3193
ath	-3194
▁77	-3195
▁것에	-3196
▁높아	-3197
▁대형	-3198
▁도쿄	-3199
▁무게	-3200
▁받았	-3201
▁보니	-3202
▁불러	-3203
▁상관	-3204
▁일람	-3205
▁최강	-3206
▁하늘	-3207
inal	-3208
▁스탠다	-3209
▁식으로	-3210
▁올라가	-3211
▁하나인	-3212
▁작곡가는	-3213
▁추가되었다	-3214
AP	-3215
TE	-3216
we	-3217
간의	-3218
곡인	-3219
내고	-3220
드에	-3221
세트	-3222
였고	-3223
자면	-3224
ife	-3225
ump	-3226
▁4:	-3227
▁8.	-3228
▁Gr	-3229
▁al	-3230
▁경험	-3231
▁명령	-3232
▁무엇	-3233
▁무한	-3234
▁보다	-3235
▁봐도	-3236
▁순서	-3237
▁안정	-3238
▁이지	-3239
▁일으	-3240
▁적절	-3241
▁조선	-3242
▁챌린	-3243
▁취소	-3244
▁팀이	-3245
▁합작	-3246
되었던	-3247
evel	-3248
▁1.5	-3249
▁195	-3250
▁한국의	-3251
▁대표적인	-3252
▁어레인지	-3253
',	-3254
4)	-3255
▁졸	-3256
▁탓	-3257
널티	-3258
녀석	-3259
단의	-3260
선거	-3261
선수	-3262
속도	-3263
스케	-3264
스코	-3265
유키	-3266
차량	-3267
해주	-3268
화국	-3269
amp	-3270
▁1:	-3271
▁DP	-3272
▁KB	-3273
▁Sk	-3274
▁녹음	-3275
▁선정	-3276
▁엇박	-3277
▁에서	-3278
▁집중	-3279
▁초대	-3280
▁화면	-3281
▁히트	-3282
상으로	-3283
▁경기를	-3284
▁구간을	-3285
▁동영상	-3286
▁서비스	-3287
▁우승을	-3288
▁전장에	-3289
▁카메라	-3290
▁페이지	-3291
▁피아노	-3292
▁효과가	-3293
되었는데	-3294
ution	-3295
▁바뀌었다	-3296
▁슬라이드	-3297
▁지방도로	-3298
▁이식되었다	-3299
▁Portable	-3300
88	-3301
▁쌓	-3302
▁펌	-3303
▁흘	-3304
가를	-3305
로가	-3306
부는	-3307
음악	-3308
체는	-3309
하라	-3310
arm	-3311
orn	-3312
▁AT	-3313
▁곡에	-3314
▁공중	-3315
▁교체	-3316
▁기계	-3317
▁마츠	-3318
▁많아	-3319
▁엘리	-3320
▁작성	-3321
▁팀은	-3322
▁혼자	-3323
시리즈	-3324
지에서	-3325
하자면	-3326
ever	-3327
▁AFC	-3328
▁가운데	-3329
▁들어간	-3330
▁이후에	-3331
▁했으나	-3332
▁2001	-3333
▁방식으로	-3334
▁생각하면	-3335
nation	-3336
47	-3337
IR	-3338
▁락	-3339
▁믿	-3340
리라	-3341
스테	-3342
식이	-3343
지기	-3344
500	-3345
ise	-3346
▁AN	-3347
▁BF	-3348
▁FX	-3349
▁JR	-3350
▁le	-3351
▁oh	-3352
▁꾸준	-3353
▁불가	-3354
▁붙어	-3355
▁시청	-3356
▁주제	-3357
▁지불	-3358
▁초창	-3359
▁하게	-3360
▁해야	-3361
▁히든	-3362
▁디스크	-3363
▁부분을	-3364
▁앨범의	-3365
▁추가된	-3366
▁크리스	-3367
▁포인트	-3368
▁하이퍼	-3369
▁한국어	-3370
other	-3371
▁시작했다	-3372
▁중심으로	-3373
▁벗	-3374
▁죄	-3375
당한	-3376
만을	-3377
만의	-3378
많은	-3379
비용	-3380
성면	-3381
야마	-3382
원의	-3383
웨어	-3384
차전	-3385
챕터	-3386
포로	-3387
OID	-3388
ash	-3389
▁MA	-3390
▁검색	-3391
▁말을	-3392
▁불리	-3393
▁비포	-3394
▁스피	-3395
▁안에	-3396
▁해법	-3397
남도의	-3398
지면서	-3399
▁VOC	-3400
▁공격을	-3401
▁라이센	-3402
▁레이저	-3403
▁만들었	-3404
▁패러디	-3405
▁1000	-3406
▁유명하다	-3407
▁존재하는	-3408
.8	-3409
65	-3410
▁답	-3411
▁템	-3412
나미	-3413
더니	-3414
배치	-3415
자조	-3416
차선	-3417
▁4,	-3418
▁ch	-3419
▁건설	-3420
▁보이	-3421
▁서버	-3422
▁쉽다	-3423
▁실행	-3424
▁아버	-3425
▁아유	-3426
▁알아	-3427
▁얼마	-3428
▁여름	-3429
▁전개	-3430
▁줄어	-3431
▁최상	-3432
▁편집	-3433
▁희생	-3434
ower	-3435
▁기능을	-3436
▁중이다	-3437
▁Time	-3438
▁여러가지	-3439
▁있었으나	-3440
.(...)	-3441
▁VOCAL	-3442
▁우회전하자	-3443
2,	-3444
98	-3445
ng	-3446
▁곧	-3447
▁씨	-3448
▁짜	-3449
별로	-3450
부를	-3451
성은	-3452
쿠라	-3453
ach	-3454
oug	-3455
www	-3456
▁Te	-3457
▁go	-3458
▁다이	-3459
▁살짝	-3460
▁성격	-3461
▁손에	-3462
▁숫자	-3463
▁승강	-3464
▁신경	-3465
▁안습	-3466
▁업그	-3467
▁엘프	-3468
▁연계	-3469
▁제일	-3470
▁출현	-3471
이라도	-3472
한다고	-3473
▁Rem	-3474
▁게임이	-3475
▁국도로	-3476
▁때마다	-3477
▁바람에	-3478
▁클래스	-3479
▁후속작	-3480
하였으며	-3481
▁1990	-3482
AB	-3483
CD	-3484
IM	-3485
가시	-3486
광역	-3487
래도	-3488
로의	-3489
인가	-3490
임을	-3491
▁33	-3492
▁Ac	-3493
▁Ap	-3494
▁가깝	-3495
▁계산	-3496
▁규모	-3497
▁들고	-3498
▁레전	-3499
▁멀티	-3500
▁비중	-3501
▁수행	-3502
▁운행	-3503
▁잠깐	-3504
▁정작	-3505
▁제주	-3506
▁준다	-3507
▁트위	-3508
▁파트	-3509
스트림	-3510
▁10.	-3511
▁레이블	-3512
▁무난한	-3513
▁생물이	-3514
▁소프트	-3515
▁수많은	-3516
▁평가를	-3517
▁필요한	-3518
▁하나의	-3519
이었지만	-3520
aster	-3521
▁충청북도	-3522
▁Level	-3523
▁style	-3524
!)	-3525
ug	-3526
▁낸	-3527
▁몽	-3528
▁폰	-3529
▁혁	-3530
너스	-3531
런트	-3532
리드	-3533
바이	-3534
원은	-3535
크가	-3536
펙트	-3537
ose	-3538
▁49	-3539
▁Le	-3540
▁by	-3541
▁no	-3542
▁검은	-3543
▁날아	-3544
▁무료	-3545
▁바꿔	-3546
▁수정	-3547
▁악마	-3548
▁약칭	-3549
▁오르	-3550
▁왼쪽	-3551
▁입장	-3552
▁전술	-3553
▁점점	-3554
▁통행	-3555
에게는	-3556
▁150	-3557
▁MIX	-3558
▁되었고	-3559
▁모바일	-3560
▁상대로	-3561
▁스크롤	-3562
▁케이스	-3563
▁퀄리티	-3564
▁개설되지	-3565
▁스코어링	-3566
▁중에서도	-3567
olution	-3568
▁VOCALOID	-3569
▁떡	-3570
▁웬	-3571
개국	-3572
계의	-3573
곡면	-3574
머니	-3575
어야	-3576
주년	-3577
초간	-3578
판을	-3579
포를	-3580
함을	-3581
회의	-3582
힌다	-3583
anc	-3584
app	-3585
ase	-3586
row	-3587
▁AR	-3588
▁BL	-3589
▁Br	-3590
▁Lv	-3591
▁SH	-3592
▁도전	-3593
▁없을	-3594
▁유리	-3595
▁재생	-3596
▁저지	-3597
▁절대	-3598
▁챕터	-3599
▁함선	-3600
▁BMS	-3601
▁노래를	-3602
▁느낌을	-3603
▁선수가	-3604
ental	-3605
29	-3606
GE	-3607
▁널	-3608
▁맛	-3609
▁싫	-3610
기고	-3611
비전	-3612
시를	-3613
시브	-3614
시코	-3615
형을	-3616
형의	-3617
-10	-3618
COS	-3619
END	-3620
▁3,	-3621
▁DC	-3622
▁경제	-3623
▁공간	-3624
▁공동	-3625
▁논란	-3626
▁다행	-3627
▁등에	-3628
▁보유	-3629
▁분리	-3630
▁사격	-3631
▁생존	-3632
▁없기	-3633
▁잘못	-3634
▁잠시	-3635
▁점이	-3636
▁조심	-3637
▁한편	-3638
▁후보	-3639
대학교	-3640
사무소	-3641
원으로	-3642
정에서	-3643
REME	-3644
iver	-3645
▁CPU	-3646
▁Gre	-3647
▁분위기	-3648
▁일어나	-3649
▁클래식	-3650
ITADO	-3651
▁들어가는	-3652
▁리듬게임	-3653
▁우루과이	-3654
▁EXTREME	-3655
▁옮	-3656
▁찬	-3657
기사	-3658
마자	-3659
서를	-3660
소년	-3661
주얼	-3662
화로	-3663
▁48	-3664
▁HT	-3665
▁관심	-3666
▁박자	-3667
▁적색	-3668
▁정박	-3669
▁제조	-3670
▁주장	-3671
▁최신	-3672
▁항상	-3673
▁힘든	-3674
▁힘을	-3675
으로써	-3676
하므로	-3677
▁고양이	-3678
▁않으면	-3679
▁know	-3680
▁구성되어	-3681
▁등장인물	-3682
▁연결된다	-3683
▁웨	-3684
가가	-3685
것이	-3686
라가	-3687
물이	-3688
아이	-3689
즈의	-3690
해진	-3691
향이	-3692
▁47	-3693
▁99	-3694
▁구매	-3695
▁기대	-3696
▁기분	-3697
▁다니	-3698
▁소리	-3699
▁쓴다	-3700
▁오리	-3701
▁위험	-3702
▁유용	-3703
▁이거	-3704
▁잡아	-3705
▁종종	-3706
▁추방	-3707
▁포켓	-3708
less	-3709
▁day	-3710
▁당신의	-3711
▁비디오	-3712
▁성능을	-3713
▁1999	-3714
▁HARD	-3715
▁플레이오프	-3716
ITADORA	-3717
2.	-3718
AA	-3719
▁x	-3720
▁깊	-3721
▁밑	-3722
▁짐	-3723
▁짓	-3724
구를	-3725
다른	-3726
던가	-3727
라보	-3728
서로	-3729
스티	-3730
MIX	-3731
alk	-3732
ors	-3733
▁GD	-3734
▁IP	-3735
▁de	-3736
▁갖고	-3737
▁남은	-3738
▁메이	-3739
▁부품	-3740
▁스튜	-3741
▁신곡	-3742
▁압축	-3743
▁출처	-3744
▁탑승	-3745
▁투고	-3746
▁편성	-3747
▁폭탄	-3748
▁학교	-3749
▁했던	-3750
적이다	-3751
한다면	-3752
▁400	-3753
▁듯하다	-3754
▁레전드	-3755
▁마이크	-3756
▁못하는	-3757
▁속한다	-3758
▁에이스	-3759
▁영상을	-3760
▁충분히	-3761
▁크로스	-3762
▁키보드	-3763
▁파이널	-3764
▁패턴을	-3765
▁후반부	-3766
thing	-3767
▁1997	-3768
▁만들었다	-3769
▁지방도에	-3770
▁마지막으로	-3771
3)	-3772
39	-3773
KI	-3774
▁딸	-3775
▁뜬	-3776
▁잊	-3777
강에	-3778
대회	-3779
려면	-3780
받은	-3781
센터	-3782
지역	-3783
키는	-3784
판은	-3785
oll	-3786
▁64	-3787
▁IS	-3788
▁LG	-3789
▁Pr	-3790
▁an	-3791
▁곡도	-3792
▁늘어	-3793
▁대구	-3794
▁들을	-3795
▁바탕	-3796
▁배우	-3797
▁벌어	-3798
▁보호	-3799
▁상업	-3800
▁선거	-3801
▁수비	-3802
▁아카	-3803
▁완벽	-3804
▁조작	-3805
▁좋지	-3806
▁판정	-3807
▁학생	-3808
라이트	-3809
ideo	-3810
ject	-3811
▁가까운	-3812
▁덱에서	-3813
▁모티브	-3814
▁버전은	-3815
▁사이드	-3816
▁샘플링	-3817
▁전구간	-3818
▁전동차	-3819
▁평범한	-3820
▁this	-3821
▁제외하고	-3822
ox	-3823
▁능	-3824
▁룰	-3825
▁벽	-3826
▁셋	-3827
▁옵	-3828
것도	-3829
냈다	-3830
네요	-3831
년이	-3832
단계	-3833
발비	-3834
즈미	-3835
uck	-3836
▁Ad	-3837
▁내가	-3838
▁느끼	-3839
▁득점	-3840
▁물리	-3841
▁부탁	-3842
▁열린	-3843
▁인디	-3844
▁저격	-3845
되어서	-3846
usic	-3847
▁EMP	-3848
▁all	-3849
▁관련된	-3850
▁금메달	-3851
▁도로가	-3852
▁메이저	-3853
▁볼텍스	-3854
▁사람도	-3855
▁생각해	-3856
▁세계관	-3857
▁프레임	-3858
▁앨범이다	-3859
▁익스트림	-3860
▁자랑한다	-3861
▁전체적인	-3862
ax	-3863
pe	-3864
▁덧	-3865
▁런	-3866
▁빔	-3867
▁휘	-3868
긴다	-3869
도우	-3870
무라	-3871
위가	-3872
할수	-3873
her	-3874
▁가리	-3875
▁권총	-3876
▁극장	-3877
▁불명	-3878
▁연상	-3879
▁오픈	-3880
▁올랐	-3881
▁장난	-3882
▁주목	-3883
▁칭호	-3884
▁플로	-3885
▁해석	-3886
▁11.	-3887
▁190	-3888
▁나와서	-3889
▁말았다	-3890
▁Dark	-3891
▁비슷하게	-3892
▁비슷하다	-3893
▁엑스트라	-3894
▁존재하지	-3895
▁좋아하는	-3896
▁Super	-3897
1/	-3898
OE	-3899
uk	-3900
▁좁	-3901
▁튜	-3902
▁핀	-3903
감이	-3904
그로	-3905
산리	-3906
산시	-3907
워크	-3908
화된	-3909
ber	-3910
les	-3911
▁).	-3912
▁ON	-3913
▁감소	-3914
▁교통	-3915
▁기다	-3916
▁네덜	-3917
▁녀석	-3918
▁변속	-3919
▁복잡	-3920
▁부른	-3921
▁상징	-3922
▁시드	-3923
▁없음	-3924
▁워낙	-3925
▁이로	-3926
▁접근	-3927
▁조지	-3928
▁추측	-3929
▁커뮤	-3930
▁통신	-3931
▁파리	-3932
사에서	-3933
었지만	-3934
였는데	-3935
▁End	-3936
▁Fly	-3937
▁are	-3938
▁곡들이	-3939
▁라이트	-3940
▁부분은	-3941
▁않지만	-3942
▁앨범에	-3943
▁오스트	-3944
▁이용해	-3945
▁이전에	-3946
▁장르는	-3947
▁주문을	-3948
▁시작한다	-3949
▁해당하는	-3950
1-	-3951
▁띄	-3952
▁염	-3953
▁혈	-3954
기인	-3955
미가	-3956
사인	-3957
성군	-3958
위는	-3959
타임	-3960
판의	-3961
프를	-3962
혔다	-3963
ail	-3964
ero	-3965
ike	-3966
lay	-3967
ult	-3968
▁55	-3969
▁57	-3970
▁CH	-3971
▁at	-3972
▁글씨	-3973
▁끝에	-3974
▁녹색	-3975
▁대중	-3976
▁도중	-3977
▁두고	-3978
▁메달	-3979
▁본인	-3980
▁불렀	-3981
▁쓰기	-3982
▁오랜	-3983
▁오오	-3984
▁인상	-3985
▁자료	-3986
▁전략	-3987
▁지휘	-3988
▁추천	-3989
보다도	-3990
이었고	-3991
▁Mag	-3992
▁그런지	-3993
▁당시의	-3994
▁반대로	-3995
▁비포장	-3996
▁오른쪽	-3997
▁중간중	-3998
되었지만	-3999
▁1980	-4000
▁Back	-4001
▁버전으로	-4002
▁상태에서	-4003
▁night	-4004
▁진행되었다	-4005
.#	-4006
32	-4007
▁굵	-4008
▁꼽	-4009
▁잭	-4010
▁칸	-4011
나라	-4012
마저	-4013
무를	-4014
버린	-4015
시로	-4016
전투	-4017
프레	-4018
(19	-4019
▁EC	-4020
▁경유	-4021
▁곡들	-4022
▁듣고	-4023
▁랭킹	-4024
▁보급	-4025
▁비밀	-4026
▁오토	-4027
▁이해	-4028
▁정리	-4029
▁종족	-4030
▁주력	-4031
▁헤비	-4032
▁현대	-4033
였으며	-4034
자들이	-4035
화에서	-4036
▁같지만	-4037
▁개발된	-4038
▁동일한	-4039
▁롱노트	-4040
▁수준의	-4041
▁아니면	-4042
▁연구생	-4043
▁테스트	-4044
▁1996	-4045
▁패턴으로	-4046
▁공개되었다	-4047
▁GITADORA	-4048
MB	-4049
OF	-4050
SC	-4051
▁렌	-4052
▁억	-4053
▁웃	-4054
성의	-4055
위권	-4056
위인	-4057
전차	-4058
크의	-4059
통령	-4060
asy	-4061
▁Se	-4062
▁계약	-4063
▁구분	-4064
▁근데	-4065
▁대단	-4066
▁마치	-4067
▁무슨	-4068
▁미쿠	-4069
▁발휘	-4070
▁실시	-4071
▁유행	-4072
▁이곳	-4073
▁코스	-4074
▁평균	-4075
나이얼	-4076
인지라	-4077
하도록	-4078
해졌다	-4079
▁ADV	-4080
▁SPA	-4081
▁꾸준히	-4082
▁나왔던	-4083
▁베스트	-4084
▁스페인	-4085
▁애초에	-4086
▁작곡한	-4087
▁페널티	-4088
▁하나가	-4089
▁하면서	-4090
▁love	-4091
▁스튜디오	-4092
▁삭제되었다	-4093
38	-4094
▁곤	-4095
▁넥	-4096
▁늦	-4097
남면	-4098
무리	-4099
문을	-4100
스키	-4101
시마	-4102
오카	-4103
이긴	-4104
차피	-4105
채널	-4106
카와	-4107
타로	-4108
und	-4109
urn	-4110
▁01	-4111
▁DN	-4112
▁To	-4113
▁구경	-4114
▁굳이	-4115
▁딱히	-4116
▁목적	-4117
▁보내	-4118
▁소유	-4119
▁스톰	-4120
▁아름	-4121
▁완료	-4122
▁이와	-4123
▁점을	-4124
▁차이	-4125
▁체감	-4126
▁폭격	-4127
▁합성	-4128
▁해안	-4129
▁호평	-4130
광역시	-4131
동에서	-4132
음에도	-4133
하게도	-4134
▁194	-4135
▁All	-4136
▁기술을	-4137
▁되면서	-4138
▁문제로	-4139
▁비롯한	-4140
▁인터뷰	-4141
▁참여한	-4142
▁프리미	-4143
▁한다는	-4144
되었으나	-4145
▁사람들은	-4146
▁아프리카	-4147
▁이번에는	-4148
▁이후에는	-4149
▁있으므로	-4150
▁Night	-4151
▁Remix	-4152
.6	-4153
▁꼭	-4154
▁낚	-4155
▁납	-4156
▁덤	-4157
곡은	-4158
기술	-4159
년의	-4160
단이	-4161
도라	-4162
류가	-4163
리얼	-4164
모로	-4165
발매	-4166
발사	-4167
소총	-4168
율이	-4169
이의	-4170
전쟁	-4171
히코	-4172
100	-4173
ary	-4174
eah	-4175
▁bl	-4176
▁광주	-4177
▁단체	-4178
▁도착	-4179
▁되돌	-4180
▁디자	-4181
▁몰아	-4182
▁앞에	-4183
▁예전	-4184
▁전통	-4185
▁콘서	-4186
▁타임	-4187
▁평소	-4188
▁후지	-4189
만으로	-4190
메이크	-4191
버리는	-4192
하다고	-4193
gain	-4194
▁800	-4195
▁DVD	-4196
▁문서로	-4197
▁상대가	-4198
▁상대의	-4199
▁시작한	-4200
▁앨범인	-4201
▁여러분	-4202
▁자리를	-4203
▁채보가	-4204
▁채보는	-4205
▁캐나다	-4206
▁포지션	-4207
▁포함한	-4208
▁확실히	-4209
▁1995	-4210
▁time	-4211
▁이어지는	-4212
▁토너먼트	-4213
(2	-4214
3,	-4215
BM	-4216
EX	-4217
KT	-4218
ty	-4219
▁뇌	-4220
가의	-4221
구가	-4222
드와	-4223
라스	-4224
량을	-4225
문이	-4226
베르	-4227
북면	-4228
요일	-4229
지며	-4230
테인	-4231
피아	-4232
호가	-4233
화에	-4234
OVE	-4235
▁EV	-4236
▁Go	-4237
▁Oh	-4238
▁거두	-4239
▁공포	-4240
▁관통	-4241
▁넘는	-4242
▁누구	-4243
▁데모	-4244
▁되며	-4245
▁모노	-4246
▁밀리	-4247
▁붙은	-4248
▁사례	-4249
▁성장	-4250
▁스웨	-4251
▁스케	-4252
▁신인	-4253
▁연습	-4254
▁연합	-4255
▁일어	-4256
▁제로	-4257
▁즐겨	-4258
▁칠레	-4259
▁파생	-4260
RESS	-4261
▁108	-4262
▁600	-4263
▁개최된	-4264
▁뛰어난	-4265
▁만들고	-4266
▁상태로	-4267
▁속도가	-4268
▁알려진	-4269
▁일종의	-4270
▁전투기	-4271
▁트위터	-4272
▁경계이다	-4273
▁도시철도	-4274
▁분위기를	-4275
▁사용가능	-4276
▁에피소드	-4277
▁파라과이	-4278
▁world	-4279
):	-4280
.4	-4281
▁깎	-4282
▁닮	-4283
▁춤	-4284
▁핸	-4285
▁훌	-4286
상에	-4287
세가	-4288
수도	-4289
역을	-4290
폭탄	-4291
하의	-4292
inc	-4293
▁Cr	-4294
▁건너	-4295
▁과학	-4296
▁그다	-4297
▁꺼내	-4298
▁나누	-4299
▁단계	-4300
▁받을	-4301
▁발전	-4302
▁보기	-4303
▁사회	-4304
▁삽입	-4305
▁선언	-4306
▁실력	-4307
▁유희	-4308
▁작동	-4309
▁토큰	-4310
▁필수	-4311
▁후살	-4312
중이다	-4313
퀘스트	-4314
atch	-4315
ress	-4316
unny	-4317
▁거기에	-4318
▁공개된	-4319
▁명칭은	-4320
▁무조건	-4321
▁손으로	-4322
▁힘들다	-4323
▁1994	-4324
▁Fire	-4325
▁가정용판	-4326
▁나오는데	-4327
▁엄청나게	-4328
▁생각합니다	-4329
(1	-4330
UM	-4331
cm	-4332
▁묶	-4333
▁밸	-4334
▁습	-4335
▁헌	-4336
곡의	-4337
급의	-4338
달러	-4339
드시	-4340
사항	-4341
상은	-4342
시가	-4343
이야	-4344
트니	-4345
트랙	-4346
하이	-4347
air	-4348
ull	-4349
▁5,	-4350
▁CC	-4351
▁감염	-4352
▁개막	-4353
▁나나	-4354
▁넣어	-4355
▁되기	-4356
▁명중	-4357
▁반대	-4358
▁빠져	-4359
▁사상	-4360
▁쓰면	-4361
▁어째	-4362
▁원본	-4363
▁채로	-4364
▁카오	-4365
▁트리	-4366
▁평이	-4367
▁포장	-4368
▁합쳐	-4369
▁흔히	-4370
▁대통령	-4371
▁등에서	-4372
▁말한다	-4373
▁브레이	-4374
▁아무리	-4375
▁안되는	-4376
▁영국의	-4377
▁유사한	-4378
▁읽는다	-4379
▁정보를	-4380
▁Star	-4381
▁from	-4382
▁리메이크	-4383
▁바탕으로	-4384
▁아무래도	-4385
▁있었는데	-4386
▁챔피언십	-4387
▁특징이다	-4388
95	-4389
ok	-4390
yn	-4391
▁쥬	-4392
개월	-4393
게도	-4394
군과	-4395
군은	-4396
네임	-4397
야구	-4398
어의	-4399
정보	-4400
주가	-4401
주면	-4402
트남	-4403
ode	-4404
pen	-4405
tus	-4406
▁46	-4407
▁MV	-4408
▁as	-4409
▁공유	-4410
▁다크	-4411
▁뛰어	-4412
▁로고	-4413
▁메가	-4414
▁보아	-4415
▁부대	-4416
▁영문	-4417
▁옛날	-4418
▁조각	-4419
▁탄약	-4420
테스트	-4421
▁Boy	-4422
▁Des	-4423
▁Mir	-4424
▁War	-4425
▁넘어가	-4426
▁사용된	-4427
▁상황이	-4428
▁스페셜	-4429
▁앨범을	-4430
▁어차피	-4431
▁초반에	-4432
▁1998	-4433
▁Girl	-4434
▁Song	-4435
▁때문인지	-4436
▁사용하고	-4437
▁이후로는	-4438
▁처음부터	-4439
▁동계올림픽	-4440
▁좌회전하자	-4441
ah	-4442
ai	-4443
▁돼	-4444
▁롤	-4445
▁죠	-4446
느냐	-4447
라크	-4448
레일	-4449
마니	-4450
사에	-4451
세를	-4452
연장	-4453
이던	-4454
인조	-4455
지원	-4456
한데	-4457
▁or	-4458
▁갖추	-4459
▁갤러	-4460
▁대비	-4461
▁발음	-4462
▁부근	-4463
▁북미	-4464
▁분명	-4465
▁비공	-4466
▁빨리	-4467
▁사양	-4468
▁압도	-4469
▁애매	-4470
▁에로	-4471
▁엑설	-4472
▁외에	-4473
▁점은	-4474
▁제국	-4475
▁큐브	-4476
라이더	-4477
멕시코	-4478
터테인	-4479
ence	-4480
▁Dis	-4481
▁EDH	-4482
▁Res	-4483
▁게임에	-4484
▁그다지	-4485
▁그리스	-4486
▁나오기	-4487
▁능력은	-4488
▁많았다	-4489
▁모습이	-4490
▁불린다	-4491
▁비하면	-4492
▁원하는	-4493
▁위주의	-4494
▁자동차	-4495
▁초창기	-4496
▁했는데	-4497
으로부터	-4498
▁까다로운	-4499
▁들어간다	-4500
▁상황에서	-4501
▁사용되었다	-4502
AF	-4503
▁는	-4504
▁란	-4505
▁십	-4506
▁쏟	-4507
▁칩	-4508
▁훈	-4509
니코	-4510
단을	-4511
리자	-4512
시한	-4513
악한	-4514
와서	-4515
인치	-4516
ret	-4517
▁At	-4518
▁거대	-4519
▁구현	-4520
▁그가	-4521
▁그루	-4522
▁나카	-4523
▁난해	-4524
▁마을	-4525
▁맞는	-4526
▁미친	-4527
▁발라	-4528
▁알파	-4529
▁일정	-4530
▁중화	-4531
▁크루	-4532
▁탄생	-4533
▁탈퇴	-4534
▁터널	-4535
▁파츠	-4536
▁프라	-4537
▁한때	-4538
▁홍보	-4539
▁흡수	-4540
년만에	-4541
들이다	-4542
마스터	-4543
▁Mem	-4544
▁기능이	-4545
▁기록을	-4546
▁들어올	-4547
▁빠르게	-4548
▁없다는	-4549
▁용도로	-4550
▁유희왕	-4551
▁좌회전	-4552
▁테크노	-4553
▁파일럿	-4554
▁Perf	-4555
▁개더링에	-4556
▁서울특별	-4557
▁스탠다드	-4558
▁어느정도	-4559
▁주의해야	-4560
▁지금까지	-4561
▁프로그래	-4562
▁Inter	-4563
RI	-4564
TS	-4565
yu	-4566
▁겪	-4567
▁꺾	-4568
▁뚫	-4569
▁붉	-4570
って	-4571
고도	-4572
구의	-4573
동로	-4574
받는	-4575
시켰	-4576
애니	-4577
전의	-4578
지방	-4579
코토	-4580
터를	-4581
터리	-4582
트리	-4583
ORE	-4584
oun	-4585
ven	-4586
▁95	-4587
▁Co	-4588
▁dj	-4589
▁가족	-4590
▁그라	-4591
▁당선	-4592
▁대다	-4593
▁붙여	-4594
▁빠르	-4595
▁뽑아	-4596
▁올려	-4597
▁우선	-4598
▁유도	-4599
▁유탄	-4600
▁출판	-4601
▁태양	-4602
▁화려	-4603
었으나	-4604
축은행	-4605
▁Ext	-4606
▁PER	-4607
▁Rev	-4608
▁뜻한다	-4609
▁명의로	-4610
▁앞으로	-4611
▁치고는	-4612
▁Jump	-4613
▁고속도로	-4614
▁라이센스	-4615
▁Cytus	-4616
▁Heart	-4617
26	-4618
="	-4619
FI	-4620
UC	-4621
hy	-4622
to	-4623
▁맹	-4624
▁켄	-4625
드럼	-4626
선승	-4627
시킬	-4628
을때	-4629
진이	-4630
체의	-4631
판에	-4632
▁03	-4633
▁98	-4634
▁Do	-4635
▁Dr	-4636
▁Of	-4637
▁경찰	-4638
▁그럼	-4639
▁네트	-4640
▁디스	-4641
▁마크	-4642
▁모자	-4643
▁변신	-4644
▁블루	-4645
▁소형	-4646
▁손을	-4647
▁승점	-4648
▁쏟아	-4649
▁아군	-4650
▁양산	-4651
▁오버	-4652
▁인지	-4653
▁접속	-4654
▁정부	-4655
▁주어	-4656
▁투어	-4657
색으로	-4658
임에도	-4659
ment	-4660
rain	-4661
▁Col	-4662
▁Man	-4663
▁노래가	-4664
▁되는데	-4665
▁때까지	-4666
▁모르는	-4667
▁받는다	-4668
▁불리는	-4669
▁비주얼	-4670
▁상대를	-4671
▁어려워	-4672
▁의미가	-4673
▁일본어	-4674
▁적에게	-4675
▁챌린지	-4676
▁타이밍	-4677
▁튀어나	-4678
▁디나이얼	-4679
▁떨어지는	-4680
▁미국에서	-4681
▁사용했다	-4682
▁사이에서	-4683
▁상대적으로	-4684
85	-4685
LC	-4686
OW	-4687
TH	-4688
▁봄	-4689
▁뿌	-4690
▁앨	-4691
▁을	-4692
강을	-4693
권이	-4694
동면	-4695
라우	-4696
먹는	-4697
면에	-4698
받고	-4699
업을	-4700
이너	-4701
치의	-4702
트에	-4703
PER	-4704
eed	-4705
ign	-4706
▁EN	-4707
▁EP	-4708
▁tr	-4709
▁개의	-4710
▁고려	-4711
▁공항	-4712
▁대만	-4713
▁보조	-4714
▁삼성	-4715
▁색깔	-4716
▁생겨	-4717
▁시설	-4718
▁어린	-4719
▁이적	-4720
▁인형	-4721
▁제법	-4722
▁창단	-4723
▁컬러	-4724
▁투표	-4725
등학교	-4726
버린다	-4727
차로로	-4728
해진다	-4729
FECT	-4730
▁HTC	-4731
▁가사가	-4732
▁강원도	-4733
▁내용이	-4734
▁뜻하는	-4735
▁마리오	-4736
▁이외의	-4737
▁제목은	-4738
▁청소년	-4739
▁포르투	-4740
▁풀콤보	-4741
▁Moon	-4742
▁대해서는	-4743
▁보여주는	-4744
▁커뮤니티	-4745
▁Skill	-4746
▁Sound	-4747
+1	-4748
77	-4749
HT	-4750
ye	-4751
▁덜	-4752
▁벤	-4753
▁쏘	-4754
금융	-4755
등의	-4756
로지	-4757
시와	-4758
어요	-4759
우가	-4760
의를	-4761
일을	-4762
하니	-4763
▁04	-4764
▁Gu	-4765
▁So	-4766
▁Sy	-4767
▁개편	-4768
▁그저	-4769
▁단점	-4770
▁따온	-4771
▁때의	-4772
▁레코	-4773
▁로마	-4774
▁미드	-4775
▁발광	-4776
▁액션	-4777
▁있긴	-4778
▁전기	-4779
▁중계	-4780
▁탓에	-4781
▁턴에	-4782
▁판타	-4783
▁한데	-4784
면으로	-4785
부리그	-4786
시에는	-4787
식으로	-4788
자들은	-4789
판으로	-4790
형으로	-4791
STER	-4792
adio	-4793
▁One	-4794
▁내에서	-4795
▁네이버	-4796
▁반드시	-4797
▁본선에	-4798
▁블로그	-4799
▁스웨덴	-4800
▁언제나	-4801
▁오리콘	-4802
▁의미로	-4803
▁추가로	-4804
▁특이한	-4805
▁파이터	-4806
▁Your	-4807
▁것이라고	-4808
▁기타도라	-4809
▁시작으로	-4810
▁시리즈에서	-4811
34	-4812
hn	-4813
▁린	-4814
그램	-4815
니어	-4816
대표	-4817
로를	-4818
루션	-4819
류를	-4820
미널	-4821
선의	-4822
성과	-4823
스텝	-4824
안군	-4825
자치	-4826
전은	-4827
지않	-4828
TRA	-4829
int	-4830
ork	-4831
▁43	-4832
▁86	-4833
▁SO	-4834
▁Tw	-4835
▁가동	-4836
▁가입	-4837
▁강조	-4838
▁겨우	-4839
▁나라	-4840
▁느낄	-4841
▁대공	-4842
▁따른	-4843
▁랭크	-4844
▁민간	-4845
▁보라	-4846
▁부문	-4847
▁세이	-4848
▁수입	-4849
▁시기	-4850
▁약한	-4851
▁입문	-4852
▁자리	-4853
▁지니	-4854
▁채택	-4855
▁팀의	-4856
▁하자	-4857
▁행동	-4858
▁호환	-4859
▁후렴	-4860
시킨다	-4861
하기에	-4862
port	-4863
▁Ang	-4864
▁RPG	-4865
▁관계로	-4866
▁레가시	-4867
▁무덤에	-4868
▁바뀐다	-4869
▁베트남	-4870
▁스스로	-4871
▁이걸로	-4872
▁점에서	-4873
▁통해서	-4874
▁Beat	-4875
▁down	-4876
▁나름대로	-4877
▁다운로드	-4878
▁마지막에	-4879
▁분위기가	-4880
▁사용되는	-4881
▁어디까지	-4882
▁여러모로	-4883
▁형식으로	-4884
▁업그레이드	-4885
'.	-4886
96	-4887
EL	-4888
TO	-4889
UD	-4890
▁あ	-4891
▁랩	-4892
▁믹	-4893
▁붕	-4894
▁윌	-4895
려는	-4896
로스	-4897
리즘	-4898
마리	-4899
만원	-4900
면의	-4901
소가	-4902
시즈	-4903
시피	-4904
었기	-4905
전사	-4906
코의	-4907
크라	-4908
팀은	-4909
형은	-4910
net	-4911
▁79	-4912
▁do	-4913
▁그걸	-4914
▁기재	-4915
▁기획	-4916
▁느린	-4917
▁니코	-4918
▁돌격	-4919
▁떠오	-4920
▁머리	-4921
▁모듈	-4922
▁믹스	-4923
▁밀려	-4924
▁서브	-4925
▁시뮬	-4926
▁연도	-4927
▁연장	-4928
▁요시	-4929
▁운동	-4930
▁유키	-4931
▁이래	-4932
▁일은	-4933
▁준비	-4934
▁쪽은	-4935
▁책정	-4936
▁타케	-4937
▁필리	-4938
▁해리	-4939
▁해주	-4940
▁허리	-4941
▁확보	-4942
되는데	-4943
라이브	-4944
트에서	-4945
ings	-4946
▁Inf	-4947
▁Mar	-4948
▁New	-4949
▁Zen	-4950
▁공화국	-4951
▁괜찮은	-4952
▁단순한	-4953
▁당신이	-4954
▁레벨이	-4955
▁문서를	-4956
▁미디어	-4957
▁버전을	-4958
▁보너스	-4959
▁없다고	-4960
▁우회전	-4961
▁위주로	-4962
▁정말로	-4963
▁줄여서	-4964
▁콜라보	-4965
▁퀘스트	-4966
▁패턴의	-4967
▁한동안	-4968
▁확률로	-4969
▁1993	-4970
▁캐릭터가	-4971
▁하드코어	-4972
▁오스트리아	-4973
▁한국에서는	-4974
13	-4975
CS	-4976
EG	-4977
cl	-4978
▁냉	-4979
▁땅	-4980
▁류	-4981
▁엠	-4982
▁캠	-4983
▁털	-4984
▁품	-4985
단에	-4986
데스	-4987
색을	-4988
인용	-4989
즈가	-4990
즈워	-4991
체로	-4992
촬영	-4993
치지	-4994
함에	-4995
The	-4996
oot	-4997
▁AV	-4998
▁DI	-4999
▁격파	-5000
▁공방	-5001
▁구글	-5002
▁구입	-5003
▁규칙	-5004
▁근접	-5005
▁기회	-5006
▁달린	-5007
▁대륙	-5008
▁뒤로	-5009
▁뒤집	-5010
▁매카	-5011
▁모아	-5012
▁묘사	-5013
▁무효	-5014
▁발비	-5015
▁병기	-5016
▁서술	-5017
▁언어	-5018
▁오투	-5019
▁은근	-5020
▁절반	-5021
▁차례	-5022
▁총기	-5023
▁추진	-5024
▁치명	-5025
▁탄환	-5026
▁회전	-5027
▁흘러	-5028
겠다고	-5029
면서도	-5030
(200	-5031
ical	-5032
irst	-5033
▁GOL	-5034
▁개최국	-5035
▁글씨는	-5036
▁당시에	-5037
▁드래그	-5038
▁떨어진	-5039
▁박자가	-5040
▁선수는	-5041
▁소재로	-5042
▁싱크로	-5043
▁쓰였다	-5044
▁의하면	-5045
▁있었고	-5046
▁형태의	-5047
azade	-5048
heher	-5049
▁Play	-5050
▁매카트니	-5051
▁시리즈를	-5052
▁이미지를	-5053
▁주의하자	-5054
▁테크니카	-5055
▁Apple	-5056
▁개최되었다	-5057
▁변경되었다	-5058
▁서울특별시	-5059
▁PERFECT	-5060
▁Scheher	-5061
▁Scheherazade	-5062
27	-5063
KE	-5064
▁덴	-5065
▁밖	-5066
▁왔	-5067
▁킬	-5068
▁탱	-5069
▁힙	-5070
대와	-5071
렬한	-5072
로로	-5073
로봇	-5074
상태	-5075
서의	-5076
소녀	-5077
소닉	-5078
움이	-5079
위원	-5080
이머	-5081
제의	-5082
학생	-5083
ILL	-5084
let	-5085
▁05	-5086
▁56	-5087
▁CL	-5088
▁CM	-5089
▁NA	-5090
▁계승	-5091
▁곡인	-5092
▁군사	-5093
▁달고	-5094
▁대장	-5095
▁드림	-5096
▁랜덤	-5097
▁맞다	-5098
▁미리	-5099
▁버그	-5100
▁붉은	-5101
▁상품	-5102
▁시대	-5103
▁쓰인	-5104
▁압박	-5105
▁유통	-5106
▁이중	-5107
▁인천	-5108
▁창원	-5109
▁출력	-5110
▁탄창	-5111
▁편입	-5112
▁한계	-5113
▁했고	-5114
었으며	-5115
▁Gam	-5116
▁Out	-5117
▁게임인	-5118
▁되어있	-5119
▁보컬은	-5120
▁얼마나	-5121
▁에너지	-5122
▁오투잼	-5123
▁유니폼	-5124
▁이것은	-5125
▁이라는	-5126
▁익스퍼	-5127
▁후반에	-5128
▁네트워크	-5129
▁선수들이	-5130
▁시스템을	-5131
▁실제로는	-5132
▁않았지만	-5133
▁프랑스의	-5134
▁현재까지	-5135
▁Elect	-5136
5)	-5137
▁!	-5138
▁놈	-5139
▁킹	-5140
기면	-5141
량의	-5142
르기	-5143
보는	-5144
보컬	-5145
시오	-5146
연타	-5147
영화	-5148
위의	-5149
이에	-5150
치기	-5151
화의	-5152
/10	-5153
▁06	-5154
▁FM	-5155
▁Is	-5156
▁공통	-5157
▁굵은	-5158
▁나서	-5159
▁내부	-5160
▁다름	-5161
▁분노	-5162
▁빨간	-5163
▁뿐만	-5164
▁속해	-5165
▁스키	-5166
▁아우	-5167
▁안동	-5168
▁않기	-5169
▁어찌	-5170
▁우려	-5171
▁운전	-5172
▁의도	-5173
▁의식	-5174
▁인한	-5175
▁일을	-5176
▁촬영	-5177
▁펌프	-5178
▁포기	-5179
▁하츠	-5180
▁합체	-5181
▁휴대	-5182
까지만	-5183
리까지	-5184
스럽게	-5185
ould	-5186
▁2.0	-5187
▁Air	-5188
▁Sun	-5189
▁one	-5190
▁ver	-5191
▁그만큼	-5192
▁대전차	-5193
▁똑같은	-5194
▁멕시코	-5195
▁본인이	-5196
▁비중이	-5197
▁빌보드	-5198
▁사이버	-5199
▁익스텐	-5200
▁하우스	-5201
▁경상남도	-5202
▁공격력이	-5203
▁방향으로	-5204
▁추정된다	-5205
▁Edition	-5206
(3	-5207
?"	-5208
CV	-5209
gr	-5210
zy	-5211
}:	-5212
▁낭	-5213
▁든	-5214
▁밟	-5215
▁샷	-5216
▁엉	-5217
가락	-5218
낸다	-5219
동이	-5220
듯한	-5221
레나	-5222
먹을	-5223
성도	-5224
잖아	-5225
질을	-5226
쳤다	-5227
타나	-5228
트라	-5229
평면	-5230
프가	-5231
ank	-5232
ony	-5233
ows	-5234
▁AE	-5235
▁겨울	-5236
▁공략	-5237
▁국민	-5238
▁나무	-5239
▁데이	-5240
▁덱이	-5241
▁떠올	-5242
▁똑같	-5243
▁마리	-5244
▁맞아	-5245
▁사냥	-5246
▁순양	-5247
▁슈팅	-5248
▁싶은	-5249
▁아날	-5250
▁육군	-5251
▁인공	-5252
▁입고	-5253
▁치는	-5254
▁플라	-5255
▁해제	-5256
▁핵심	-5257
노트가	-5258
되었기	-5259
미사일	-5260
사이트	-5261
었는데	-5262
캐릭터	-5263
화되어	-5264
ello	-5265
ship	-5266
sion	-5267
▁Vol	-5268
▁mix	-5269
▁가격은	-5270
▁나오며	-5271
▁들어오	-5272
▁라운드	-5273
▁말하는	-5274
▁발표한	-5275
▁아이스	-5276
▁없었던	-5277
▁오브젝	-5278
▁이상한	-5279
▁이즈미	-5280
▁인지도	-5281
▁있도록	-5282
▁자신을	-5283
▁제작된	-5284
▁하나는	-5285
uture	-5286
▁High	-5287
▁TAKA	-5288
▁Team	-5289
▁Wind	-5290
▁기록하며	-5291
▁데미지가	-5292
▁주인공이	-5293
▁Style	-5294
▁EMPRESS	-5295
28	-5296
4,	-5297
AU	-5298
RL	-5299
co	-5300
▁긁	-5301
계열	-5302
년간	-5303
바로	-5304
발을	-5305
보고	-5306
성능	-5307
슬러	-5308
졌고	-5309
중인	-5310
지와	-5311
타를	-5312
패를	-5313
함이	-5314
해안	-5315
UAL	-5316
▁97	-5317
▁Am	-5318
▁DM	-5319
▁MP	-5320
▁감안	-5321
▁개를	-5322
▁고개	-5323
▁공사	-5324
▁궁극	-5325
▁끌어	-5326
▁노르	-5327
▁누군	-5328
▁당황	-5329
▁대략	-5330
▁대로	-5331
▁덕에	-5332
▁랜드	-5333
▁리얼	-5334
▁만한	-5335
▁맞게	-5336
▁메카	-5337
▁무리	-5338
▁무색	-5339
▁무서	-5340
▁비틀	-5341
▁시장	-5342
▁얘기	-5343
▁어울	-5344
▁오늘	-5345
▁요청	-5346
▁유우	-5347
▁유치	-5348
▁인식	-5349
▁인증	-5350
▁인텔	-5351
▁적극	-5352
▁전화	-5353
▁정치	-5354
▁주관	-5355
▁죽을	-5356
▁직후	-5357
▁코믹	-5358
▁티켓	-5359
▁포탑	-5360
▁활성	-5361
▁회피	-5362
▁희망	-5363
력으로	-5364
리면서	-5365
속도가	-5366
스트로	-5367
키스탄	-5368
했었다	-5369
▁Ver	-5370
▁가깝다	-5371
▁경기가	-5372
▁그레이	-5373
▁끝까지	-5374
▁단순히	-5375
▁당신은	-5376
▁대체로	-5377
▁드로우	-5378
▁라인업	-5379
▁롱버전	-5380
▁명의는	-5381
▁사람의	-5382
▁생겼다	-5383
▁성우는	-5384
▁성적을	-5385
▁않아서	-5386
ision	-5387
▁100%	-5388
▁Happ	-5389
▁Hard	-5390
▁just	-5391
▁구간이다	-5392
▁의미한다	-5393
▁처음에는	-5394
▁초기에는	-5395
터테인먼트	-5396
onight	-5397
▁heart	-5398
▁일반적으로	-5399
57	-5400
97	-5401
LD	-5402
▁$	-5403
▁넌	-5404
▁닌	-5405
▁짝	-5406
▁펑	-5407
▁흉	-5408
거운	-5409
건담	-5410
기업	-5411
두고	-5412
등을	-5413
리며	-5414
보자	-5415
싱턴	-5416
암면	-5417
양군	-5418
양면	-5419
어져	-5420
었을	-5421
우고	-5422
음반	-5423
주를	-5424
천로	-5425
통신	-5426
포르	-5427
형인	-5428
rig	-5429
sel	-5430
son	-5431
use	-5432
▁Em	-5433
▁OS	-5434
▁VS	-5435
▁가득	-5436
▁가볍	-5437
▁걸로	-5438
▁곡과	-5439
▁교육	-5440
▁내놓	-5441
▁디젤	-5442
▁라틴	-5443
▁말에	-5444
▁복귀	-5445
▁시계	-5446
▁아리	-5447
▁아쉽	-5448
▁앞서	-5449
▁저렴	-5450
▁정찰	-5451
▁좌우	-5452
▁지닌	-5453
▁폐지	-5454
▁함정	-5455
▁훈련	-5456
즈에서	-5457
weet	-5458
▁SKE	-5459
▁거대한	-5460
▁나이트	-5461
▁내용을	-5462
▁느낌의	-5463
▁대지를	-5464
▁뜻이다	-5465
▁아래의	-5466
▁약간의	-5467
▁윈도우	-5468
▁이어서	-5469
▁자체의	-5470
▁중후반	-5471
▁항목을	-5472
저축은행	-5473
ction	-5474
strum	-5475
▁1992	-5476
▁clip	-5477
▁대회에서	-5478
▁아날로그	-5479
▁유저들이	-5480
▁이루어져	-5481
▁지방도는	-5482
▁출발하여	-5483
▁카운터를	-5484
▁하나이다	-5485
▁Music	-5486
▁업데이트로	-5487
46	-5488
6)	-5489
Ch	-5490
▁꼴	-5491
▁닉	-5492
▁릴	-5493
▁술	-5494
▁훗	-5495
して	-5496
내면	-5497
냐는	-5498
로와	-5499
미를	-5500
부대	-5501
연히	-5502
워드	-5503
일본	-5504
차를	-5505
포가	-5506
풍의	-5507
ont	-5508
▁DE	-5509
▁Ev	-5510
▁나이	-5511
▁넘버	-5512
▁달러	-5513
▁덧붙	-5514
▁데스	-5515
▁덱의	-5516
▁독특	-5517
▁돌려	-5518
▁리더	-5519
▁마사	-5520
▁만에	-5521
▁만족	-5522
▁상금	-5523
▁서포	-5524
▁섞여	-5525
▁성향	-5526
▁소년	-5527
▁스카	-5528
▁승부	-5529
▁어쨌	-5530
▁연고	-5531
▁영원	-5532
▁옆을	-5533
▁음원	-5534
▁저작	-5535
▁종점	-5536
▁주기	-5537
▁초중	-5538
▁퇴역	-5539
▁판단	-5540
▁회원	-5541
웨이트	-5542
ough	-5543
▁180	-5544
▁700	-5545
▁Run	-5546
▁Set	-5547
▁가격이	-5548
▁그것도	-5549
▁기술이	-5550
▁노트수	-5551
▁떨어져	-5552
▁라이벌	-5553
▁레이어	-5554
▁명의를	-5555
▁버튼을	-5556
▁비해서	-5557
▁성능은	-5558
▁아무런	-5559
▁않으며	-5560
▁이것이	-5561
▁이후의	-5562
▁있듯이	-5563
▁제목의	-5564
▁화이트	-5565
▁히어로	-5566
대한민국	-5567
되어있다	-5568
들에게는	-5569
리까지는	-5570
▁게임에서	-5571
▁네덜란드	-5572
▁마이크로	-5573
▁목적으로	-5574
▁부여마법	-5575
▁사용된다	-5576
▁Angel	-5577
▁본격적으로	-5578
▁Jumpin	-5579
▁Project	-5580
AV	-5581
WS	-5582
YZ	-5583
▁갱	-5584
▁둔	-5585
▁래	-5586
▁척	-5587
나와	-5588
랫폼	-5589
런스	-5590
롯데	-5591
마을	-5592
마의	-5593
보스	-5594
블린	-5595
시설	-5596
시온	-5597
아웃	-5598
안면	-5599
어넣	-5600
어리	-5601
으론	-5602
일은	-5603
장갑	-5604
제는	-5605
지마	-5606
코스	-5607
터가	-5608
.10	-5609
ACK	-5610
ale	-5611
rag	-5612
▁CF	-5613
▁CJ	-5614
▁OF	-5615
▁가서	-5616
▁간접	-5617
▁갖춘	-5618
▁구축	-5619
▁대사	-5620
▁로켓	-5621
▁많고	-5622
▁맡은	-5623
▁먹고	-5624
▁무너	-5625
▁무대	-5626
▁반영	-5627
▁생활	-5628
▁쉬워	-5629
▁아쉬	-5630
▁은퇴	-5631
▁일명	-5632
▁전달	-5633
▁조정	-5634
▁치료	-5635
▁파란	-5636
▁훗날	-5637
▁힙합	-5638
계에서	-5639
량으로	-5640
볼루션	-5641
사이저	-5642
스포츠	-5643
였다고	-5644
원에서	-5645
ears	-5646
ocal	-5647
orte	-5648
stem	-5649
▁Rec	-5650
▁것처럼	-5651
▁게임은	-5652
▁근처에	-5653
▁나오면	-5654
▁나타나	-5655
▁노트를	-5656
▁마무리	-5657
▁버전의	-5658
▁보컬로	-5659
▁소리를	-5660
▁없으며	-5661
▁엔진을	-5662
▁출시된	-5663
▁출신의	-5664
▁하츠네	-5665
▁회사의	-5666
이었는데	-5667
▁1970	-5668
▁Days	-5669
▁기록했다	-5670
▁사용하기	-5671
▁아유미의	-5672
▁이야기가	-5673
▁이어진다	-5674
▁편이지만	-5675
▁일러스트레이터	-5676
strumental	-5677
7,	-5678
:0	-5679
▁앱	-5680
▁웅	-5681
▁율	-5682
▁톱	-5683
가로	-5684
과를	-5685
관이	-5686
군다	-5687
로만	-5688
모를	-5689
버스	-5690
법을	-5691
부와	-5692
분해	-5693
세기	-5694
션을	-5695
악의	-5696
예선	-5697
읍과	-5698
장한	-5699
쪽에	-5700
카르	-5701
하긴	-5702
호로	-5703
ING	-5704
ape	-5705
oul	-5706
yes	-5707
▁AB	-5708
▁Gl	-5709
▁갤럭	-5710
▁공군	-5711
▁근육	-5712
▁다섯	-5713
▁등록	-5714
▁리믹	-5715
▁말자	-5716
▁물렙	-5717
▁미군	-5718
▁받지	-5719
▁보병	-5720
▁부담	-5721
▁불편	-5722
▁사토	-5723
▁상향	-5724
▁서클	-5725
▁소수	-5726
▁속에	-5727
▁써서	-5728
▁아침	-5729
▁없게	-5730
▁연기	-5731
▁의뢰	-5732
▁이란	-5733
▁읽는	-5734
▁자매	-5735
▁적의	-5736
▁줄임	-5737
▁직전	-5738
▁태국	-5739
▁팀을	-5740
▁판권	-5741
▁페달	-5742
▁페르	-5743
▁편이	-5744
▁하계	-5745
▁호주	-5746
▁홍콩	-5747
▁훌륭	-5748
▁흑색	-5749
되어있	-5750
되었을	-5751
레벨로	-5752
았으나	-5753
자마자	-5754
-200	-5755
ands	-5756
▁120	-5757
▁VOL	-5758
▁our	-5759
▁대놓고	-5760
▁독일의	-5761
▁디지몬	-5762
▁말이다	-5763
▁메모리	-5764
▁발동할	-5765
▁보스곡	-5766
▁비공식	-5767
▁시간을	-5768
▁위력을	-5769
▁유저가	-5770
▁있기에	-5771
▁파이어	-5772
▁필요가	-5773
▁BEST	-5774
▁Comm	-5775
▁Just	-5776
▁Part	-5777
▁Spir	-5778
▁난이도로	-5779
▁느낌으로	-5780
▁몬스터를	-5781
▁미사일을	-5782
▁익스텐디	-5783
▁챔피언스	-5784
▁프로듀서	-5785
▁필요하다	-5786
▁되었습니다	-5787
.7	-5788
2-	-5789
ib	-5790
▁갔	-5791
▁덥	-5792
▁료	-5793
▁몬	-5794
▁젤	-5795
▁춘	-5796
▁텔	-5797
▁횡	-5798
가와	-5799
기지	-5800
도에	-5801
디로	-5802
마스	-5803
메탈	-5804
문화	-5805
받아	-5806
비스	-5807
성로	-5808
역이	-5809
차에	-5810
크를	-5811
트릭	-5812
티가	-5813
필드	-5814
후의	-5815
AME	-5816
ons	-5817
ott	-5818
png	-5819
▁07	-5820
▁EM	-5821
▁IM	-5822
▁IW	-5823
▁if	-5824
▁un	-5825
▁걸어	-5826
▁그에	-5827
▁금융	-5828
▁깔끔	-5829
▁내는	-5830
▁다수	-5831
▁도망	-5832
▁러브	-5833
▁로드	-5834
▁만다	-5835
▁본편	-5836
▁분석	-5837
▁분야	-5838
▁사태	-5839
▁사항	-5840
▁섞인	-5841
▁세르	-5842
▁스코	-5843
▁스텝	-5844
▁스프	-5845
▁싱가	-5846
▁아스	-5847
▁올드	-5848
▁원소	-5849
▁이펙	-5850
▁중인	-5851
▁통한	-5852
▁포트	-5853
▁해상	-5854
단으로	-5855
라고도	-5856
졌으며	-5857
피니티	-5858
▁Bar	-5859
▁Don	-5860
▁YOU	-5861
▁거기다	-5862
▁계열의	-5863
▁고개를	-5864
▁고블린	-5865
▁공격할	-5866
▁구성된	-5867
▁논란이	-5868
▁리그에	-5869
▁못한다	-5870
▁보컬을	-5871
▁보컬이	-5872
▁사람들	-5873
▁사용해	-5874
▁사이의	-5875
▁세계의	-5876
▁앨범은	-5877
▁오사카	-5878
▁올랐다	-5879
▁위에서	-5880
▁이유가	-5881
▁있어야	-5882
▁자연수	-5883
▁처음에	-5884
▁쿨타임	-5885
▁패자조	-5886
▁평가가	-5887
▁해리슨	-5888
▁호평을	-5889
▁기본적인	-5890
▁능력으로	-5891
▁되었으며	-5892
▁부분에서	-5893
▁수준으로	-5894
▁인지도가	-5895
▁포르투갈	-5896
▁플레이버	-5897
▁again	-5898
▁불가능하다	-5899
▁포켓몬스터	-5900
▁프로그래밍	-5901
.'	-5902
.9	-5903
/6	-5904
DA	-5905
PC	-5906
▁낫	-5907
▁맺	-5908
▁멈	-5909
▁왠	-5910
▁컵	-5911
から	-5912
기만	-5913
드립	-5914
러가	-5915
레드	-5916
버리	-5917
서면	-5918
요소	-5919
웠다	-5920
위키	-5921
일의	-5922
조로	-5923
천리	-5924
하시	-5925
/30	-5926
ger	-5927
ier	-5928
▁08	-5929
▁BN	-5930
▁SN	-5931
▁Ta	-5932
▁US	-5933
▁구단	-5934
▁그럴	-5935
▁나뉘	-5936
▁네오	-5937
▁때도	-5938
▁바닥	-5939
▁배포	-5940
▁불과	-5941
▁빈티	-5942
▁산탄	-5943
▁수요	-5944
▁숨겨	-5945
▁신형	-5946
▁안전	-5947
▁완결	-5948
▁이다	-5949
▁인근	-5950
▁장기	-5951
▁전함	-5952
▁점수	-5953
▁직결	-5954
▁치러	-5955
▁혁명	-5956
가지원	-5957
겠다는	-5958
기에서	-5959
덱에서	-5960
라든가	-5961
일랜드	-5962
하기로	-5963
하려고	-5964
/150	-5965
ator	-5966
ning	-5967
onic	-5968
▁13.	-5969
▁Big	-5970
▁EXC	-5971
▁FOE	-5972
▁MVP	-5973
▁not	-5974
▁끝나고	-5975
▁늘어나	-5976
▁다행히	-5977
▁대신에	-5978
▁사실은	-5979
▁사용이	-5980
▁살아남	-5981
▁상황을	-5982
▁세번째	-5983
▁속에서	-5984
▁싱글로	-5985
▁아무도	-5986
▁어쨌든	-5987
▁연타가	-5988
▁작품을	-5989
▁전작의	-5990
▁제목이	-5991
특별자치	-5992
▁PEND	-5993
▁feat	-5994
▁베이스로	-5995
▁부근에서	-5996
▁사용하면	-5997
▁알겠지만	-5998
▁여기부터	-5999
▁일본에서	-6000
▁지방도가	-6001
▁프로듀싱	-6002
▁기타리스트	-6003
▁수록곡으로	-6004
▁어디까지나	-6005
▁여담이지만	-6006
▁해금곡으로	-6007
▁Street	-6008
▁PENDUAL	-6009
49	-6010
NO	-6011
Th	-6012
UB	-6013
zz	-6014
▁샌	-6015
고가	-6016
곡리	-6017
공항	-6018
규모	-6019
끼리	-6020
더라	-6021
때는	-6022
량은	-6023
력과	-6024
메이	-6025
묘한	-6026
물로	-6027
베이	-6028
보단	-6029
였기	-6030
유닛	-6031
이블	-6032
인수	-6033
자키	-6034
주고	-6035
치게	-6036
코가	-6037
포의	-6038
협회	-6039
후에	-6040
.25	-6041
AND	-6042
VER	-6043
ild	-6044
oss	-6045
ume	-6046
▁68	-6047
▁UE	-6048
▁am	-6049
▁가게	-6050
▁결합	-6051
▁교환	-6052
▁귀여	-6053
▁금속	-6054
▁나의	-6055
▁네임	-6056
▁덱을	-6057
▁됐다	-6058
▁뜻은	-6059
▁롯데	-6060
▁맡고	-6061
▁밀어	-6062
▁방문	-6063
▁방지	-6064
▁선봉	-6065
▁스폰	-6066
▁쓰지	-6067
▁아는	-6068
▁영동	-6069
▁영입	-6070
▁예외	-6071
▁온갖	-6072
▁우타	-6073
▁이끌	-6074
▁자격	-6075
▁잡지	-6076
▁전시	-6077
▁정령	-6078
▁정의	-6079
▁정지	-6080
▁졸업	-6081
▁주립	-6082
▁주소	-6083
▁중복	-6084
▁크다	-6085
▁편의	-6086
▁행복	-6087
년대에	-6088
성으로	-6089
시간이	-6090
역으로	-6091
자들의	-6092
줍니다	-6093
판에서	-6094
/100	-6095
/120	-6096
anna	-6097
▁50%	-6098
▁But	-6099
▁Ear	-6100
▁KBO	-6101
▁her	-6102
▁way	-6103
▁끊긴다	-6104
▁똑같이	-6105
▁맡았다	-6106
▁모른다	-6107
▁목소리	-6108
▁뮤지션	-6109
▁밝혔다	-6110
▁방법이	-6111
▁배치가	-6112
▁별도로	-6113
▁불렀다	-6114
▁비마니	-6115
▁사실을	-6116
▁어드벤	-6117
▁엑시즈	-6118
▁영상이	-6119
▁의견이	-6120
▁장르의	-6121
▁점수를	-6122
▁정확히	-6123
▁지나가	-6124
▁지니고	-6125
▁코나미	-6126
▁플랫폼	-6127
▁필리핀	-6128
판에서는	-6129
▁2021	-6130
▁Cent	-6131
▁Dist	-6132
▁away	-6133
▁feel	-6134
▁국가대표	-6135
▁국가지원	-6136
▁시점에서	-6137
▁자랑하는	-6138
▁캐릭터는	-6139
▁Every	-6140
▁Light	-6141
▁플레이어는	-6142
▁System	-6143
",	-6144
))	-6145
EP	-6146
UR	-6147
WE	-6148
XX	-6149
bo	-6150
fl	-6151
pl	-6152
sp	-6153
▁そ	-6154
▁델	-6155
▁뭉	-6156
▁셔	-6157
▁옷	-6158
▁킥	-6159
대학	-6160
려나	-6161
론을	-6162
률이	-6163
머리	-6164
스러	-6165
슬링	-6166
신의	-6167
양읍	-6168
이게	-6169
장인	-6170
히고	-6171
TAS	-6172
eop	-6173
erv	-6174
iqu	-6175
ogy	-6176
oud	-6177
rod	-6178
▁88	-6179
▁AI	-6180
▁GM	-6181
▁MO	-6182
▁Mi	-6183
▁가야	-6184
▁걸려	-6185
▁견제	-6186
▁공수	-6187
▁길을	-6188
▁나쁘	-6189
▁노말	-6190
▁단독	-6191
▁단일	-6192
▁마르	-6193
▁바퀴	-6194
▁변화	-6195
▁비싸	-6196
▁사일	-6197
▁소서	-6198
▁손이	-6199
▁스펙	-6200
▁신설	-6201
▁싫어	-6202
▁쓰러	-6203
▁아머	-6204
▁얻어	-6205
▁외부	-6206
▁외의	-6207
▁은행	-6208
▁이은	-6209
▁인류	-6210
▁작전	-6211
▁정발	-6212
▁지능	-6213
▁카페	-6214
▁캐논	-6215
▁태그	-6216
▁토모	-6217
▁행정	-6218
내에서	-6219
됩니다	-6220
상에서	-6221
월부터	-6222
이기에	-6223
이었기	-6224
점에서	-6225
정으로	-6226
파이어	-6227
하기가	-6228
하지는	-6229
ross	-6230
▁250	-6231
▁Cap	-6232
▁MAX	-6233
▁공격시	-6234
▁그랜드	-6235
▁끝나는	-6236
▁날아가	-6237
▁단위인	-6238
▁동명의	-6239
▁들어서	-6240
▁마음을	-6241
▁마코토	-6242
▁밴드의	-6243
▁브라우	-6244
▁어렵지	-6245
▁작품이	-6246
▁주제에	-6247
▁콤보를	-6248
▁페이스	-6249
▁현재의	-6250
면사무소	-6251
산리에서	-6252
하였으나	-6253
ronic	-6254
▁Baby	-6255
▁게임으로	-6256
▁게임이다	-6257
▁대상으로	-6258
▁보이지만	-6259
▁스타일의	-6260
▁아름다운	-6261
▁앨범으로	-6262
▁이루어진	-6263
▁이외에도	-6264
▁이용하여	-6265
▁전라남도	-6266
▁충청남도	-6267
▁화면에서	-6268
▁Magic	-6269
▁공식적으로	-6270
▁그래서인지	-6271
▁국가지원지방	-6272
(5	-6273
/8	-6274
▁猫	-6275
▁쥐	-6276
▁퀸	-6277
▁텐	-6278
가에	-6279
과도	-6280
남로	-6281
명인	-6282
백과	-6283
비의	-6284
산을	-6285
성에	-6286
스톰	-6287
았고	-6288
언을	-6289
에다	-6290
오리	-6291
재로	-6292
주인	-6293
즈마	-6294
카가	-6295
터의	-6296
턴에	-6297
포먼	-6298
호의	-6299
-13	-6300
-52	-6301
/20	-6302
OKI	-6303
ext	-6304
oid	-6305
ube	-6306
▁AG	-6307
▁AL	-6308
▁IR	-6309
▁RA	-6310
▁us	-6311
▁가슴	-6312
▁게시	-6313
▁격추	-6314
▁근거	-6315
▁글로	-6316
▁날려	-6317
▁내장	-6318
▁대충	-6319
▁덱에	-6320
▁돈을	-6321
▁돌진	-6322
▁메뉴	-6323
▁못해	-6324
▁무승	-6325
▁박살	-6326
▁밝은	-6327
▁버티	-6328
▁보물	-6329
▁복합	-6330
▁블럭	-6331
▁빠진	-6332
▁수출	-6333
▁신속	-6334
▁아닐	-6335
▁알게	-6336
▁애플	-6337
▁양쪽	-6338
▁어두	-6339
▁어둠	-6340
▁어택	-6341
▁옆에	-6342
▁완공	-6343
▁요즘	-6344
▁응원	-6345
▁이뤄	-6346
▁이스	-6347
▁전방	-6348
▁전형	-6349
▁제식	-6350
▁제안	-6351
▁좀비	-6352
▁중부	-6353
▁직행	-6354
▁책임	-6355
▁초청	-6356
▁총열	-6357
▁콜레	-6358
▁탈출	-6359
▁포항	-6360
▁한참	-6361
▁헤드	-6362
거리는	-6363
급으로	-6364
라이언	-6365
선으로	-6366
소프트	-6367
이스케	-6368
하려는	-6369
ness	-6370
▁KAC	-6371
▁now	-6372
▁가사를	-6373
▁다루는	-6374
▁때부터	-6375
▁방식은	-6376
▁벗어나	-6377
▁손배치	-6378
▁스위스	-6379
▁시기에	-6380
▁안에서	-6381
▁어머니	-6382
▁음악이	-6383
▁이것을	-6384
▁이상을	-6385
▁장면이	-6386
▁재발매	-6387
▁케이블	-6388
▁투고한	-6389
▁트릴이	-6390
▁판타지	-6391
▁하기도	-6392
▁look	-6393
▁will	-6394
▁과정에서	-6395
▁난이도에	-6396
▁데이터를	-6397
▁들어보면	-6398
▁모습으로	-6399
▁시리즈가	-6400
▁시리즈와	-6401
▁알고리즘	-6402
▁조종하는	-6403
▁국도로부터	-6404
▁일렉트로니카	-6405
▁Windows	-6406
.3	-6407
/5	-6408
??	-6409
IZ	-6410
▁객	-6411
▁봤	-6412
▁잦	-6413
▁젠	-6414
▁징	-6415
고개	-6416
고를	-6417
골을	-6418
군을	-6419
기록	-6420
도와	-6421
득점	-6422
등장	-6423
버튼	-6424
슬론	-6425
시는	-6426
제작	-6427
줘야	-6428
천읍	-6429
IVE	-6430
ane	-6431
ara	-6432
ert	-6433
iew	-6434
ura	-6435
▁51	-6436
▁69	-6437
▁Ep	-6438
▁MS	-6439
▁PD	-6440
▁ro	-6441
▁감사	-6442
▁결혼	-6443
▁고급	-6444
▁과목	-6445
▁구미	-6446
▁그는	-6447
▁그만	-6448
▁나눠	-6449
▁누가	-6450
▁뉴스	-6451
▁동료	-6452
▁동물	-6453
▁라브	-6454
▁맥스	-6455
▁민첩	-6456
▁방해	-6457
▁백색	-6458
▁뽑는	-6459
▁사는	-6460
▁상처	-6461
▁소켓	-6462
▁수리	-6463
▁신규	-6464
▁심한	-6465
▁아사	-6466
▁아오	-6467
▁언탭	-6468
▁엑스	-6469
▁오해	-6470
▁적혀	-6471
▁조절	-6472
▁지급	-6473
▁지배	-6474
▁쪽이	-6475
▁테란	-6476
▁파악	-6477
▁폐쇄	-6478
▁후방	-6479
ends	-6480
▁Are	-6481
▁Let	-6482
▁RES	-6483
▁TUN	-6484
▁don	-6485
▁관계가	-6486
▁구조를	-6487
▁그것을	-6488
▁그녀의	-6489
▁기록한	-6490
▁대해서	-6491
▁대회는	-6492
▁되어서	-6493
▁멤버는	-6494
▁무효화	-6495
▁별도의	-6496
▁본명은	-6497
▁부분의	-6498
▁손가락	-6499
▁스피드	-6500
▁시절에	-6501
▁안된다	-6502
▁앨범이	-6503
▁역사상	-6504
▁영어로	-6505
▁유래는	-6506
▁은근히	-6507
▁이라고	-6508
▁작품의	-6509
▁정한다	-6510
▁지금도	-6511
▁최후반	-6512
▁코믹스	-6513
▁퍼포먼	-6514
우루과이	-6515
▁Fate	-6516
▁Rain	-6517
▁UEFA	-6518
▁more	-6519
▁니코니코	-6520
▁다이스케	-6521
▁되어있다	-6522
▁등장하지	-6523
▁마리오네	-6524
▁수록세트	-6525
▁수준이다	-6526
▁시스템이	-6527
▁올라간다	-6528
▁전구간이	-6529
▁컨테스트	-6530
▁해금된다	-6531
▁동시치기가	-6532
▁플레이하는	-6533
'(	-6534
43	-6535
62	-6536
CH	-6537
No	-6538
ez	-6539
▁곁	-6540
▁섹	-6541
▁헷	-6542
것을	-6543
경을	-6544
그래	-6545
기간	-6546
기동	-6547
길이	-6548
당선	-6549
덱의	-6550
드리	-6551
력도	-6552
링을	-6553
무기	-6554
미나	-6555
미는	-6556
반기	-6557
실을	-6558
심히	-6559
용한	-6560
원에	-6561
줬다	-6562
캐릭	-6563
키를	-6564
트와	-6565
피자	-6566
호환	-6567
-15	-6568
ich	-6569
▁82	-6570
▁85	-6571
▁AA	-6572
▁AF	-6573
▁IT	-6574
▁Qu	-6575
▁SE	-6576
▁Wi	-6577
▁na	-6578
▁거래	-6579
▁거리	-6580
▁공급	-6581
▁기어	-6582
▁끼어	-6583
▁넣은	-6584
▁노력	-6585
▁누른	-6586
▁다룬	-6587
▁독자	-6588
▁레드	-6589
▁로그	-6590
▁막아	-6591
▁말해	-6592
▁무사	-6593
▁미개	-6594
▁베르	-6595
▁시행	-6596
▁안녕	-6597
▁암살	-6598
▁얻을	-6599
▁에어	-6600
▁영광	-6601
▁올송	-6602
▁위협	-6603
▁의한	-6604
▁자극	-6605
▁주민	-6606
▁줄여	-6607
▁지뢰	-6608
▁처럼	-6609
▁추락	-6610
▁출범	-6611
▁크리	-6612
▁필드	-6613
▁학원	-6614
▁합병	-6615
▁화염	-6616
▁후계	-6617
게이지	-6618
데미지	-6619
라비아	-6620
라이즌	-6621
속으로	-6622
/160	-6623
ally	-6624
here	-6625
▁(1)	-6626
▁...	-6627
▁Dev	-6628
▁Leg	-6629
▁RED	-6630
▁get	-6631
▁see	-6632
▁구간의	-6633
▁까다롭	-6634
▁난해한	-6635
▁대상을	-6636
▁보여준	-6637
▁보이지	-6638
▁본인의	-6639
▁사건이	-6640
▁생물은	-6641
▁않았고	-6642
▁약자로	-6643
▁우승팀	-6644
▁자체도	-6645
▁진정한	-6646
▁집어넣	-6647
▁초중반	-6648
▁최대한	-6649
▁하나다	-6650
▁하다가	-6651
▁한다면	-6652
▁활성화	-6653
▁효과로	-6654
이라고도	-6655
eople	-6656
ittle	-6657
orrow	-6658
▁Life	-6659
▁Yeah	-6660
▁가능하며	-6661
▁단위인정	-6662
▁대부분이	-6663
▁멜로디가	-6664
▁멜로디를	-6665
▁멤버들이	-6666
▁목소리가	-6667
▁브레이크	-6668
▁슈퍼로봇	-6669
▁엑설런트	-6670
▁오프라인	-6671
▁익스퍼트	-6672
▁전형적인	-6673
▁제목으로	-6674
▁차지했다	-6675
▁캐릭터를	-6676
▁First	-6677
▁going	-6678
▁만들어졌다	-6679
▁소프트웨어	-6680
▁전반적으로	-6681
▁진출하였다	-6682
▁Future	-6683
41	-6684
9)	-6685
GB	-6686
▁궤	-6687
▁멸	-6688
▁쫓	-6689
▁컷	-6690
▁퓨	-6691
した	-6692
고기	-6693
군에	-6694
니스	-6695
라리	-6696
루가	-6697
리다	-6698
명과	-6699
바나	-6700
브라	-6701
석이	-6702
스킬	-6703
식의	-6704
없다	-6705
역의	-6706
오가	-6707
워서	-6708
전선	-6709
조가	-6710
클럽	-6711
토스	-6712
티드	-6713
프의	-6714
!!!	-6715
-16	-6716
ALL	-6717
eep	-6718
iel	-6719
iki	-6720
ney	-6721
red	-6722
▁09	-6723
▁52	-6724
▁BA	-6725
▁CT	-6726
▁HE	-6727
▁MC	-6728
▁Or	-6729
▁PL	-6730
▁Sw	-6731
▁가요	-6732
▁간의	-6733
▁공대	-6734
▁관한	-6735
▁그게	-6736
▁까지	-6737
▁남북	-6738
▁넓은	-6739
▁눈에	-6740
▁돌파	-6741
▁디비	-6742
▁뜬금	-6743
▁메모	-6744
▁무언	-6745
▁배정	-6746
▁봉화	-6747
▁붙는	-6748
▁서양	-6749
▁신디	-6750
▁알렉	-6751
▁없애	-6752
▁옮겨	-6753
▁와서	-6754
▁왠지	-6755
▁우수	-6756
▁자막	-6757
▁재밌	-6758
▁재현	-6759
▁조사	-6760
▁중독	-6761
▁지칭	-6762
▁차단	-6763
▁청색	-6764
▁체인	-6765
▁타격	-6766
▁펼쳐	-6767
▁평택	-6768
▁합은	-6769
되지만	-6770
마저도	-6771
았는데	-6772
으니까	-6773
지지만	-6774
프라이	-6775
했다가	-6776
atic	-6777
band	-6778
land	-6779
oney	-6780
▁1/1	-6781
▁110	-6782
▁360	-6783
▁Can	-6784
▁DPA	-6785
▁MBC	-6786
▁com	-6787
▁가지는	-6788
▁나오게	-6789
▁다음에	-6790
▁달리는	-6791
▁드디어	-6792
▁드라큘	-6793
▁문제를	-6794
▁방송을	-6795
▁부족한	-6796
▁상태가	-6797
▁소속의	-6798
▁스카이	-6799
▁실력을	-6800
▁아버지	-6801
▁악마성	-6802
▁예선을	-6803
▁외에는	-6804
▁익숙해	-6805
▁일부러	-6806
▁저작권	-6807
▁중반부	-6808
▁출전한	-6809
▁카드다	-6810
▁카드도	-6811
▁편이라	-6812
▁폭타가	-6813
▁프레이	-6814
▁했으며	-6815
▁활용한	-6816
크라이나	-6817
ecial	-6818
▁Vers	-6819
▁관광지로	-6820
▁교차하며	-6821
▁그러니까	-6822
▁그렇지만	-6823
▁디자이너	-6824
▁레볼루션	-6825
▁배경으로	-6826
▁사용하지	-6827
▁상태이다	-6828
▁생각보다	-6829
▁아이템을	-6830
▁이용해서	-6831
▁작품이다	-6832
▁후반부에	-6833
▁프로그램을	-6834
riginal	-6835
▁Another	-6836
IL	-6837
af	-6838
▁넷	-6839
▁딴	-6840
▁즈	-6841
▁쿄	-6842
구나	-6843
기타	-6844
동과	-6845
루의	-6846
버릴	-6847
분을	-6848
브를	-6849
서가	-6850
슈타	-6851
암리	-6852
약을	-6853
어스	-6854
율을	-6855
이팅	-6856
있게	-6857
조리	-6858
즈를	-6859
지점	-6860
커의	-6861
키가	-6862
타운	-6863
표를	-6864
ama	-6865
gin	-6866
ool	-6867
▁CA	-6868
▁Im	-6869
▁Je	-6870
▁PP	-6871
▁SS	-6872
▁가벼	-6873
▁갈아	-6874
▁강제	-6875
▁개선	-6876
▁고전	-6877
▁기원	-6878
▁끝난	-6879
▁내구	-6880
▁내의	-6881
▁다를	-6882
▁대결	-6883
▁떠나	-6884
▁레인	-6885
▁마구	-6886
▁맞춘	-6887
▁무적	-6888
▁문자	-6889
▁미야	-6890
▁부디	-6891
▁불꽃	-6892
▁사우	-6893
▁상상	-6894
▁소비	-6895
▁슬로	-6896
▁쓰여	-6897
▁어쩔	-6898
▁오는	-6899
▁저그	-6900
▁주최	-6901
▁충실	-6902
▁취향	-6903
▁쿠로	-6904
▁클랜	-6905
▁펜타	-6906
▁헷갈	-6907
▁화성	-6908
권에서	-6909
년도에	-6910
디우스	-6911
버스터	-6912
베이스	-6913
수록곡	-6914
스크바	-6915
위까지	-6916
인으로	-6917
있어서	-6918
지는데	-6919
케이션	-6920
페이스	-6921
회에서	-6922
/200	-6923
PECT	-6924
chan	-6925
ieve	-6926
ious	-6927
math	-6928
ords	-6929
▁01.	-6930
▁ESP	-6931
▁GSL	-6932
▁Get	-6933
▁IOC	-6934
▁Now	-6935
▁but	-6936
▁out	-6937
▁say	-6938
▁극장판	-6939
▁기관포	-6940
▁단점이	-6941
▁대학교	-6942
▁들어갔	-6943
▁따라가	-6944
▁레이싱	-6945
▁많아서	-6946
▁멤버가	-6947
▁반응이	-6948
▁발라드	-6949
▁방식을	-6950
▁사실이	-6951
▁시즌에	-6952
▁약수는	-6953
▁이들은	-6954
▁이하의	-6955
▁전에는	-6956
▁절대로	-6957
▁제목을	-6958
▁종류의	-6959
▁주의할	-6960
▁줄임말	-6961
▁줍니다	-6962
▁참가자	-6963
▁핀란드	-6964
▁하루카	-6965
▁홍천군	-6966
분해하면	-6967
스테이션	-6968
attle	-6969
light	-6970
▁1982	-6971
▁1984	-6972
▁8000	-6973
▁Come	-6974
▁LOVE	-6975
▁When	-6976
▁good	-6977
▁kors	-6978
▁what	-6979
▁경기에서	-6980
▁들어갔다	-6981
▁리마스터	-6982
▁말하자면	-6983
▁모스크바	-6984
▁보여주고	-6985
▁시작하는	-6986
▁시작하여	-6987
▁어나더는	-6988
▁여기서는	-6989
▁의미하는	-6990
▁이미지가	-6991
▁진출했다	-6992
▁프리미어	-6993
▁합성수로	-6994
Master	-6995
ampion	-6996
▁Happy	-6997
▁가면라이더	-6998
▁전라북도의	-6999
▁주립대학교	-7000
▁출시되었다	-7001
인수분해하면	-7002
!'	-7003
8)	-7004
IP	-7005
▁낼	-7006
▁딜	-7007
▁벙	-7008
▁앵	-7009
▁찌	-7010
▁캘	-7011
▁힐	-7012
この	-7013
권의	-7014
끄는	-7015
돼서	-7016
리나	-7017
리엄	-7018
모드	-7019
미터	-7020
바람	-7021
번의	-7022
보기	-7023
비행	-7024
사용	-7025
션이	-7026
시대	-7027
양시	-7028
운동	-7029
일리	-7030
전자	-7031
키의	-7032
화와	-7033
-14	-7034
-19	-7035
-47	-7036
erm	-7037
ual	-7038
▁Ab	-7039
▁CO	-7040
▁GN	-7041
▁GP	-7042
▁Mr	-7043
▁ex	-7044
▁간혹	-7045
▁감상	-7046
▁거부	-7047
▁널리	-7048
▁노스	-7049
▁높이	-7050
▁놓고	-7051
▁대항	-7052
▁등급	-7053
▁떡밥	-7054
▁런던	-7055
▁말고	-7056
▁말로	-7057
▁믹싱	-7058
▁비록	-7059
▁비상	-7060
▁비싼	-7061
▁산업	-7062
▁수치	-7063
▁순식	-7064
▁스팀	-7065
▁승무	-7066
▁시나	-7067
▁시내	-7068
▁심각	-7069
▁싶어	-7070
▁아야	-7071
▁언더	-7072
▁연동	-7073
▁용어	-7074
▁유의	-7075
▁이니	-7076
▁이시	-7077
▁저항	-7078
▁전송	-7079
▁전철	-7080
▁제어	-7081
▁카나	-7082
▁카즈	-7083
▁평타	-7084
▁푸른	-7085
▁플레	-7086
▁화장	-7087
▁흔들	-7088
개이며	-7089
것으로	-7090
라디오	-7091
시키고	-7092
인데도	-7093
적이고	-7094
0000	-7095
body	-7096
ited	-7097
self	-7098
▁10%	-7099
▁Adv	-7100
▁WOR	-7101
▁강렬한	-7102
▁곡들은	-7103
▁곡들을	-7104
▁국도를	-7105
▁그렇고	-7106
▁노래는	-7107
▁된다는	-7108
▁때에는	-7109
▁무기를	-7110
▁사용자	-7111
▁사진을	-7112
▁얻는다	-7113
▁엘드라	-7114
▁오래된	-7115
▁완벽한	-7116
▁우수한	-7117
▁의미를	-7118
▁이르는	-7119
▁제작사	-7120
▁줄어들	-7121
▁출시한	-7122
▁파일을	-7123
▁판정이	-7124
▁플로어	-7125
미네이션	-7126
미네이터	-7127
ander	-7128
▁Miss	-7129
▁back	-7130
▁나오기도	-7131
▁대표하는	-7132
▁데미지와	-7133
▁분위기의	-7134
▁이전에는	-7135
▁작곡가의	-7136
▁정식으로	-7137
▁정확히는	-7138
▁지나간다	-7139
▁지방도를	-7140
▁지속시간	-7141
▁참가했다	-7142
▁한국에서	-7143
▁Storm	-7144
▁시뮬레이션	-7145
▁우크라이나	-7146
▁자체적으로	-7147
▁특이하게도	-7148
▁프로토타입	-7149
▁플레이어가	-7150
▁슈퍼로봇대전	-7151
national	-7152
▁RESPECT	-7153
▁소인수분해하면	-7154
37	-7155
67	-7156
=2	-7157
DD	-7158
px	-7159
▁굿	-7160
▁꽃	-7161
▁덩	-7162
▁돋	-7163
▁램	-7164
▁밴	-7165
▁빙	-7166
▁흰	-7167
기능	-7168
년을	-7169
당히	-7170
더블	-7171
더욱	-7172
동생	-7173
되게	-7174
들여	-7175
력의	-7176
르지	-7177
르크	-7178
뿐만	-7179
스카	-7180
아르	-7181
있고	-7182
작의	-7183
정은	-7184
중앙	-7185
친다	-7186
타카	-7187
토의	-7188
평군	-7189
합이	-7190
-20	-7191
ANC	-7192
ask	-7193
ese	-7194
ift	-7195
que	-7196
ung	-7197
▁BS	-7198
▁IA	-7199
▁JT	-7200
▁sp	-7201
▁간격	-7202
▁개국	-7203
▁겸임	-7204
▁고객	-7205
▁구름	-7206
▁그때	-7207
▁기지	-7208
▁기초	-7209
▁나고	-7210
▁내에	-7211
▁넘겨	-7212
▁넣는	-7213
▁단행	-7214
▁대폭	-7215
▁뒤를	-7216
▁드는	-7217
▁등은	-7218
▁디바	-7219
▁레거	-7220
▁막기	-7221
▁먹는	-7222
▁무츠	-7223
▁미로	-7224
▁바다	-7225
▁바보	-7226
▁받게	-7227
▁버젼	-7228
▁빛을	-7229
▁살해	-7230
▁생성	-7231
▁서쪽	-7232
▁시그	-7233
▁시노	-7234
▁아내	-7235
▁아랍	-7236
▁아웃	-7237
▁어지	-7238
▁언론	-7239
▁에디	-7240
▁올리	-7241
▁유효	-7242
▁은하	-7243
▁의심	-7244
▁이리	-7245
▁적다	-7246
▁전사	-7247
▁전장	-7248
▁정차	-7249
▁정체	-7250
▁죽음	-7251
▁중상	-7252
▁천사	-7253
▁충돌	-7254
▁측면	-7255
▁클릭	-7256
▁터치	-7257
▁트로	-7258
▁표지	-7259
▁하락	-7260
▁회의	-7261
글랜드	-7262
는다는	-7263
능력이	-7264
만큼은	-7265
스트의	-7266
시켰다	-7267
았지만	-7268
었다는	-7269
졌지만	-7270
하는게	-7271
/300	-7272
rist	-7273
▁02.	-7274
▁1.0	-7275
▁20%	-7276
▁Ass	-7277
▁Fun	-7278
▁GDP	-7279
▁Her	-7280
▁Ryu	-7281
▁가까이	-7282
▁계획이	-7283
▁곳에서	-7284
▁나왔을	-7285
▁내놓은	-7286
▁너무나	-7287
▁더더욱	-7288
▁도중에	-7289
▁독특한	-7290
▁동인지	-7291
▁목표를	-7292
▁방법은	-7293
▁사람을	-7294
▁사랑을	-7295
▁사용시	-7296
▁소리가	-7297
▁수밖에	-7298
▁숨겨진	-7299
▁스타트	-7300
▁않아도	-7301
▁에로게	-7302
▁역으로	-7303
▁원곡은	-7304
▁이들이	-7305
▁중국의	-7306
▁채보로	-7307
▁체력이	-7308
▁플레인	-7309
▁합니다	-7310
▁활약을	-7311
습니다만	-7312
이라든가	-7313
차로이다	-7314
right	-7315
▁1989	-7316
▁1991	-7317
▁Blue	-7318
▁Club	-7319
▁Linc	-7320
▁Tril	-7321
▁개인차가	-7322
▁거기다가	-7323
▁구간에서	-7324
▁동일하다	-7325
▁라브니카	-7326
▁사람들을	-7327
▁사람들의	-7328
▁세계에서	-7329
▁순간마법	-7330
▁순식간에	-7331
▁스트리트	-7332
▁시리즈는	-7333
▁요구하는	-7334
▁위해서는	-7335
▁유저들은	-7336
▁최근에는	-7337
antasy	-7338
▁Green	-7339
▁Spiral	-7340
▁Champion	-7341
Instrumental	-7342
3-	-7343
OB	-7344
UP	-7345
rr	-7346
▁눌	-7347
▁됐	-7348
▁떼	-7349
▁벡	-7350
▁씹	-7351
▁콩	-7352
▁택	-7353
▁픽	-7354
▁험	-7355
▁헨	-7356
거야	-7357
계에	-7358
니가	-7359
단총	-7360
덱이	-7361
들리	-7362
들목	-7363
럭저	-7364
문의	-7365
미디	-7366
미로	-7367
비로	-7368
씨가	-7369
아의	-7370
오의	-7371
인과	-7372
전설	-7373
지던	-7374
차트	-7375
축구	-7376
코르	-7377
텐츠	-7378
하에	-7379
ady	-7380
org	-7381
str	-7382
▁6,	-7383
▁Af	-7384
▁BT	-7385
▁CG	-7386
▁GE	-7387
▁MB	-7388
▁RE	-7389
▁TO	-7390
▁ar	-7391
▁mm	-7392
▁거짓	-7393
▁걸맞	-7394
▁고로	-7395
▁구사	-7396
▁그랬	-7397
▁김제	-7398
▁깊은	-7399
▁날개	-7400
▁눈을	-7401
▁답게	-7402
▁둘이	-7403
▁만날	-7404
▁말할	-7405
▁매일	-7406
▁몸을	-7407
▁보안	-7408
▁부정	-7409
▁생겼	-7410
▁생기	-7411
▁선생	-7412
▁성적	-7413
▁수직	-7414
▁수집	-7415
▁시원	-7416
▁신스	-7417
▁앞의	-7418
▁업체	-7419
▁여행	-7420
▁유카	-7421
▁인스	-7422
▁임무	-7423
▁임팩	-7424
▁입은	-7425
▁장을	-7426
▁재개	-7427
▁재보	-7428
▁재즈	-7429
▁주를	-7430
▁주축	-7431
▁즐길	-7432
▁채워	-7433
▁초동	-7434
▁타워	-7435
▁통칭	-7436
▁포탄	-7437
▁폭주	-7438
▁하필	-7439
▁헤어	-7440
▁혈액	-7441
다니는	-7442
당선자	-7443
들과는	-7444
디스크	-7445
럭저럭	-7446
해보면	-7447
해주는	-7448
해지는	-7449
ROOP	-7450
acle	-7451
reat	-7452
▁Bit	-7453
▁Bro	-7454
▁Car	-7455
▁ONE	-7456
▁Sky	-7457
▁bel	-7458
▁was	-7459
▁경향이	-7460
▁구간에	-7461
▁그렇지	-7462
▁길이가	-7463
▁끝난다	-7464
▁나누어	-7465
▁대회의	-7466
▁레이븐	-7467
▁마나가	-7468
▁마츠이	-7469
▁만나는	-7470
▁모델이	-7471
▁벨기에	-7472
▁사쿠라	-7473
▁상황에	-7474
▁성능이	-7475
▁승리를	-7476
▁승자조	-7477
▁어두운	-7478
▁열심히	-7479
▁유니버	-7480
▁이제는	-7481
▁장착한	-7482
▁충격과	-7483
▁통과자	-7484
▁특징은	-7485
▁파트너	-7486
▁팬들의	-7487
▁편으로	-7488
▁한국인	-7489
▁해금곡	-7490
하면서도	-7491
ories	-7492
▁1985	-7493
▁1986	-7494
▁1987	-7495
▁1988	-7496
▁Good	-7497
▁Rock	-7498
▁Step	-7499
▁Will	-7500
▁want	-7501
▁게이지가	-7502
▁그럭저럭	-7503
▁대상에게	-7504
▁보면에서	-7505
▁브라우저	-7506
▁싱가포르	-7507
▁이야기를	-7508
▁이후에도	-7509
▁중간중간	-7510
▁타이틀곡	-7511
▁Final	-7512
▁Power	-7513
▁WORLD	-7514
▁dream	-7515
▁일본에서는	-7516
▁터미네이터	-7517
ROOPERS	-7518
▁Trilogy	-7519
)+	-7520
HA	-7521
lt	-7522
▁갓	-7523
▁렉	-7524
▁멘	-7525
▁밥	-7526
▁헝	-7527
계가	-7528
구역	-7529
권에	-7530
그린	-7531
당시	-7532
르트	-7533
사건	-7534
수다	-7535
스팅	-7536
시티	-7537
엔진	-7538
연합	-7539
와도	-7540
읍을	-7541
작이	-7542
조는	-7543
지인	-7544
쳐서	-7545
코드	-7546
키퍼	-7547
터블	-7548
토리	-7549
판과	-7550
함의	-7551
항공	-7552
NIC	-7553
OSS	-7554
day	-7555
eek	-7556
ern	-7557
ris	-7558
uro	-7559
▁FA	-7560
▁Lu	-7561
▁Ma	-7562
▁{1	-7563
▁가상	-7564
▁간간	-7565
▁강철	-7566
▁개봉	-7567
▁견인	-7568
▁광역	-7569
▁내리	-7570
▁다큐	-7571
▁단편	-7572
▁동원	-7573
▁들려	-7574
▁때려	-7575
▁라임	-7576
▁리가	-7577
▁미러	-7578
▁병사	-7579
▁불렙	-7580
▁불안	-7581
▁불참	-7582
▁붕괴	-7583
▁살려	-7584
▁샷건	-7585
▁성인	-7586
▁스텔	-7587
▁시티	-7588
▁실린	-7589
▁에스	-7590
▁역전	-7591
▁예산	-7592
▁원자	-7593
▁원핸	-7594
▁웨이	-7595
▁전원	-7596
▁중급	-7597
▁탄두	-7598
▁토마	-7599
▁통틀	-7600
▁파티	-7601
▁패키	-7602
▁포인	-7603
▁해피	-7604
렸지만	-7605
받는다	-7606
수이다	-7607
스티벌	-7608
에게도	-7609
작으로	-7610
주세요	-7611
포인트	-7612
FINI	-7613
ault	-7614
rame	-7615
rive	-7616
ways	-7617
▁04.	-7618
▁CON	-7619
▁Gen	-7620
▁Inc	-7621
▁MOD	-7622
▁Sec	-7623
▁war	-7624
▁간단한	-7625
▁갤러리	-7626
▁결승전	-7627
▁국도가	-7628
▁그것이	-7629
▁그리는	-7630
▁나들목	-7631
▁대회를	-7632
▁덥스텝	-7633
▁들어갈	-7634
▁따왔다	-7635
▁마음에	-7636
▁많지만	-7637
▁모델로	-7638
▁보이스	-7639
▁부분에	-7640
▁스킬을	-7641
▁실력이	-7642
▁어렵게	-7643
▁웬만한	-7644
▁위치를	-7645
▁은메달	-7646
▁점이다	-7647
▁참가한	-7648
▁최강의	-7649
▁취급을	-7650
▁탑재한	-7651
▁편이며	-7652
▁헤일로	-7653
▁회사가	-7654
▁Down	-7655
▁GOLD	-7656
▁Mind	-7657
▁With	-7658
▁계속해서	-7659
▁나오지만	-7660
▁내에서는	-7661
▁다음으로	-7662
▁도착하는	-7663
▁되었는데	-7664
▁따라리라	-7665
▁바이러스	-7666
▁소속되어	-7667
▁스트라이	-7668
▁연결하는	-7669
▁위키백과	-7670
▁참여했다	-7671
▁회사에서	-7672
▁Radio	-7673
▁Stage	-7674
▁Trans	-7675
▁경상남도의	-7676
▁국내에서는	-7677
▁기록하였다	-7678
▁등장하였다	-7679
▁헤비웨이트	-7680
▁Lincle	-7681
▁Revolution	-7682
92	-7683
BE	-7684
DS	-7685
LY	-7686
pp	-7687
▁깃	-7688
▁뭘	-7689
▁뺏	-7690
▁뻔	-7691
▁캄	-7692
▁쿼	-7693
▁툴	-7694
겠지	-7695
관리	-7696
구치	-7697
국제	-7698
금을	-7699
나타	-7700
데다	-7701
도르	-7702
랄한	-7703
렸고	-7704
률을	-7705
리안	-7706
모가	-7707
발이	-7708
번을	-7709
산업	-7710
서스	-7711
수에	-7712
시절	-7713
식은	-7714
았을	-7715
우기	-7716
임이	-7717
점에	-7718
조의	-7719
질이	-7720
티아	-7721
페인	-7722
평양	-7723
품을	-7724
하드	-7725
학자	-7726
함과	-7727
화한	-7728
/40	-7729
300	-7730
ERA	-7731
III	-7732
POP	-7733
ict	-7734
irc	-7735
lin	-7736
ner	-7737
nic	-7738
▁'0	-7739
▁El	-7740
▁ML	-7741
▁NE	-7742
▁Up	-7743
▁{{	-7744
▁가로	-7745
▁계통	-7746
▁고통	-7747
▁기쁘	-7748
▁나쁜	-7749
▁낮아	-7750
▁네이	-7751
▁놀라	-7752
▁당일	-7753
▁대개	-7754
▁드물	-7755
▁리드	-7756
▁리버	-7757
▁막장	-7758
▁말도	-7759
▁명곡	-7760
▁모터	-7761
▁보잉	-7762
▁붙인	-7763
▁빨라	-7764
▁사도	-7765
▁선행	-7766
▁세종	-7767
▁쉽지	-7768
▁스펠	-7769
▁싸움	-7770
▁아메	-7771
▁안내	-7772
▁얻는	-7773
▁엄밀	-7774
▁여겨	-7775
▁연사	-7776
▁오마	-7777
▁오후	-7778
▁요새	-7779
▁우회	-7780
▁원정	-7781
▁일주	-7782
▁저장	-7783
▁정책	-7784
▁지옥	-7785
▁차기	-7786
▁창설	-7787
▁체코	-7788
▁초보	-7789
▁치고	-7790
▁치면	-7791
▁카이	-7792
▁코토	-7793
▁투명	-7794
▁편에	-7795
▁하던	-7796
▁한손	-7797
▁한자	-7798
까지도	-7799
니스탄	-7800
란드의	-7801
사이드	-7802
아시아	-7803
치고는	-7804
ALYZ	-7805
Baby	-7806
INAL	-7807
TRAX	-7808
igit	-7809
them	-7810
▁03.	-7811
▁3.0	-7812
▁Arc	-7813
▁Che	-7814
▁Mov	-7815
▁RAM	-7816
▁Tri	-7817
▁가사는	-7818
▁것에서	-7819
▁골키퍼	-7820
▁그렇다	-7821
▁기체를	-7822
▁노리고	-7823
▁되지만	-7824
▁리그로	-7825
▁말하면	-7826
▁메트로	-7827
▁명칭이	-7828
▁못하게	-7829
▁무기로	-7830
▁발비가	-7831
▁수도권	-7832
▁애슬론	-7833
▁없는데	-7834
▁요소를	-7835
▁위력이	-7836
▁위치에	-7837
▁이전의	-7838
▁자체를	-7839
▁작품은	-7840
▁장거리	-7841
▁정보는	-7842
▁지금의	-7843
▁최악의	-7844
▁테마곡	-7845
▁패턴에	-7846
▁팬들이	-7847
▁한국에	-7848
▁확률이	-7849
▁힘들어	-7850
otion	-7851
▁Boys	-7852
▁Drag	-7853
▁Live	-7854
▁Real	-7855
▁like	-7856
▁공격력을	-7857
▁기관단총	-7858
▁나오면서	-7859
▁노르웨이	-7860
▁돌아가는	-7861
▁드라큘라	-7862
▁명칭으로	-7863
▁사운드가	-7864
▁사운드를	-7865
▁시절부터	-7866
▁싱글음반	-7867
▁아시안컵	-7868
▁올라가는	-7869
▁우리나라	-7870
▁유희왕의	-7871
▁이번에도	-7872
▁있었으며	-7873
▁지방도의	-7874
▁지원하는	-7875
▁패턴이다	-7876
▁포함되어	-7877
▁플레이를	-7878
ALYZER	-7879
▁NAOKI	-7880
▁SKILL	-7881
▁대표적으로	-7882
▁시작되었다	-7883
▁실질적으로	-7884
▁제외하고는	-7885
▁중간중간에	-7886
▁참가하였다	-7887
▁플레이어를	-7888
▁INFINI	-7889
▁만들었습니다	-7890
▁ANALYZER	-7891
0)	-7892
5,	-7893
FS	-7894
HO	-7895
VI	-7896
gl	-7897
ji	-7898
▁댓	-7899
▁땐	-7900
▁쭉	-7901
▁쾌	-7902
▁퀴	-7903
▁핫	-7904
것은	-7905
결승	-7906
고로	-7907
길을	-7908
다시	-7909
되던	-7910
됨에	-7911
렸던	-7912
로나	-7913
리포	-7914
마력	-7915
먹은	-7916
문자	-7917
미국	-7918
세의	-7919
소속	-7920
야의	-7921
언이	-7922
이와	-7923
일러	-7924
작을	-7925
정에	-7926
주군	-7927
지능	-7928
진의	-7929
창군	-7930
추어	-7931
츠키	-7932
케인	-7933
키아	-7934
통제	-7935
해져	-7936
호는	-7937
-17	-7938
.11	-7939
400	-7940
ADA	-7941
ESS	-7942
ari	-7943
enn	-7944
ics	-7945
new	-7946
ury	-7947
▁53	-7948
▁SU	-7949
▁VJ	-7950
▁sm	-7951
▁猫叉	-7952
▁값이	-7953
▁국방	-7954
▁그를	-7955
▁기습	-7956
▁기점	-7957
▁긴급	-7958
▁나노	-7959
▁나선	-7960
▁넣고	-7961
▁던전	-7962
▁데려	-7963
▁도구	-7964
▁등과	-7965
▁리뷰	-7966
▁마린	-7967
▁만만	-7968
▁매그	-7969
▁매니	-7970
▁명목	-7971
▁몽골	-7972
▁무방	-7973
▁문경	-7974
▁바꾼	-7975
▁복사	-7976
▁부하	-7977
▁블러	-7978
▁색을	-7979
▁수를	-7980
▁수신	-7981
▁실전	-7982
▁아파	-7983
▁어딘	-7984
▁연방	-7985
▁오디	-7986
▁오랫	-7987
▁이노	-7988
▁이사	-7989
▁입체	-7990
▁작용	-7991
▁잠수	-7992
▁장탄	-7993
▁재활	-7994
▁제기	-7995
▁좋을	-7996
▁죽은	-7997
▁지지	-7998
▁초당	-7999
▁케익	-8000
▁코버	-8001
▁키보	-8002
▁탄도	-8003
▁투하	-8004
▁트윈	-8005
▁페이	-8006
▁행사	-8007
▁힘이	-8008
당한다	-8009
라이저	-8010
로서의	-8011
인지는	-8012
있으며	-8013
정도로	-8014
즈워커	-8015
패턴이	-8016
프리카	-8017
하기는	-8018
PERT	-8019
arch	-8020
feat	-8021
form	-8022
ouse	-8023
raft	-8024
tern	-8025
▁+1/	-8026
▁1,2	-8027
▁Dep	-8028
▁Hea	-8029
▁boy	-8030
▁감독이	-8031
▁경기는	-8032
▁관심을	-8033
▁기관총	-8034
▁노선이	-8035
▁능력치	-8036
▁리플즈	-8037
▁마스코	-8038
▁무시무	-8039
▁밀도가	-8040
▁발음이	-8041
▁방식의	-8042
▁버리고	-8043
▁보컬인	-8044
▁블레이	-8045
▁비용을	-8046
▁새롭게	-8047
▁속하는	-8048
▁시절의	-8049
▁심하게	-8050
▁싶다면	-8051
▁쓰이고	-8052
▁아머드	-8053
▁아이콘	-8054
▁어지간	-8055
▁업로드	-8056
▁워싱턴	-8057
▁이식된	-8058
▁일어난	-8059
▁있다가	-8060
▁주변에	-8061
▁최상급	-8062
▁콘서트	-8063
▁특징이	-8064
▁팬들은	-8065
▁퍼펙트	-8066
▁프로세	-8067
▁하나씩	-8068
▁형태를	-8069
▁효과는	-8070
▁후에는	-8071
았습니다	-8072
ining	-8073
under	-8074
▁1500	-8075
▁fine	-8076
▁게이지를	-8077
▁나타난다	-8078
▁담당하고	-8079
▁무츠히코	-8080
▁본격적인	-8081
▁생각하고	-8082
▁조심해야	-8083
▁카드들이	-8084
▁캐릭터의	-8085
Street	-8086
▁Sweet	-8087
▁never	-8088
▁track	-8089
▁개통되었다	-8090
▁대한민국은	-8091
▁적극적으로	-8092
▁엔터테인먼트	-8093
▁제주특별자치	-8094
▁콜라보레이션	-8095
▁Version	-8096
/7	-8097
51	-8098
64	-8099
68	-8100
ck	-8101
cy	-8102
my	-8103
▁걱	-8104
▁맘	-8105
▁뱀	-8106
▁숲	-8107
▁짙	-8108
경찰	-8109
계단	-8110
계획	-8111
곳에	-8112
교를	-8113
라엘	-8114
링크	-8115
마타	-8116
메라	-8117
방향	-8118
봐야	-8119
사업	-8120
사이	-8121
세한	-8122
소를	-8123
순위	-8124
시스	-8125
운다	-8126
이동	-8127
장비	-8128
저우	-8129
정리	-8130
제국	-8131
즈는	-8132
탄의	-8133
테란	-8134
티엄	-8135
-12	-8136
TOP	-8137
ids	-8138
ize	-8139
oor	-8140
rap	-8141
▁74	-8142
▁78	-8143
▁8,	-8144
▁CE	-8145
▁CR	-8146
▁SL	-8147
▁VR	-8148
▁XX	-8149
▁건조	-8150
▁고갯	-8151
▁곳이	-8152
▁관객	-8153
▁관람	-8154
▁구형	-8155
▁글을	-8156
▁난타	-8157
▁납치	-8158
▁내고	-8159
▁단발	-8160
▁달아	-8161
▁당진	-8162
▁대기	-8163
▁드립	-8164
▁듣기	-8165
▁들은	-8166
▁라그	-8167
▁루이	-8168
▁루카	-8169
▁리눅	-8170
▁마련	-8171
▁매력	-8172
▁명이	-8173
▁벙커	-8174
▁변환	-8175
▁봉인	-8176
▁부를	-8177
▁부상	-8178
▁북쪽	-8179
▁분할	-8180
▁사장	-8181
▁세워	-8182
▁신뢰	-8183
▁심심	-8184
▁아바	-8185
▁어떠	-8186
▁언젠	-8187
▁업무	-8188
▁영덕	-8189
▁예측	-8190
▁이론	-8191
▁이룬	-8192
▁이른	-8193
▁장점	-8194
▁전주	-8195
▁전파	-8196
▁제가	-8197
▁죄다	-8198
▁주가	-8199
▁중량	-8200
▁지켜	-8201
▁지키	-8202
▁찾는	-8203
▁평을	-8204
▁폭풍	-8205
▁프린	-8206
▁한방	-8207
▁행성	-8208
▁흐름	-8209
당했다	-8210
마니아	-8211
스트를	-8212
원들이	-8213
일에는	-8214
전으로	-8215
초동안	-8216
ason	-8217
ible	-8218
▁05.	-8219
▁14.	-8220
▁2.5	-8221
▁EBS	-8222
▁FIA	-8223
▁GRE	-8224
▁HKT	-8225
▁III	-8226
▁Mac	-8227
▁OVA	-8228
▁TAG	-8229
▁TaQ	-8230
▁WWE	-8231
▁갤럭시	-8232
▁거리가	-8233
▁공연을	-8234
▁귀여운	-8235
▁그들의	-8236
▁그루빈	-8237
▁기존에	-8238
▁대지가	-8239
▁대회에	-8240
▁만든다	-8241
▁반응을	-8242
▁방어력	-8243
▁복잡한	-8244
▁상대는	-8245
▁세군다	-8246
▁소속된	-8247
▁속도로	-8248
▁시작된	-8249
▁아닌가	-8250
▁안동시	-8251
▁않도록	-8252
▁않았던	-8253
▁어그로	-8254
▁유저들	-8255
▁의미는	-8256
▁이상이	-8257
▁있었기	-8258
▁있을까	-8259
▁장갑차	-8260
▁장르를	-8261
▁전체를	-8262
▁지상파	-8263
▁차이로	-8264
▁차지한	-8265
▁채보의	-8266
▁총선거	-8267
▁카더라	-8268
▁카드와	-8269
▁콤보가	-8270
▁패턴과	-8271
▁펜티엄	-8272
되었다고	-8273
이었으며	-8274
inity	-8275
orteD	-8276
▁Fall	-8277
▁Feel	-8278
▁경기도의	-8279
▁기점으로	-8280
▁노선이다	-8281
▁노트수가	-8282
▁멤버들의	-8283
▁모던에서	-8284
▁발생하는	-8285
▁방어력이	-8286
▁세계대전	-8287
▁정규앨범	-8288
▁진행된다	-8289
▁차지하고	-8290
▁페이스북	-8291
▁세계적으로	-8292
▁EXPERT	-8293
▁플레인즈워커	-8294
Original	-8295
▁Special	-8296
▁TROOPERS	-8297
▁DistorteD	-8298
6,	-8299
GA	-8300
KO	-8301
PY	-8302
au	-8303
so	-8304
tr	-8305
▁u	-8306
▁겁	-8307
▁년	-8308
▁닿	-8309
▁젊	-8310
▁펠	-8311
いて	-8312
よう	-8313
世界	-8314
강로	-8315
개발	-8316
고의	-8317
구리	-8318
니와	-8319
다이	-8320
단체	-8321
데이	-8322
동리	-8323
라며	-8324
렇게	-8325
료를	-8326
루미	-8327
만화	-8328
모델	-8329
버를	-8330
번에	-8331
번은	-8332
브루	-8333
산맥	-8334
색의	-8335
선과	-8336
소재	-8337
스틱	-8338
시드	-8339
아키	-8340
오고	-8341
우드	-8342
이프	-8343
이후	-8344
인간	-8345
인듯	-8346
저히	-8347
전대	-8348
조를	-8349
직한	-8350
테크	-8351
텍처	-8352
포트	-8353
.00	-8354
600	-8355
OLL	-8356
TER	-8357
UND	-8358
oom	-8359
oro	-8360
osh	-8361
rav	-8362
▁BO	-8363
▁GB	-8364
▁GR	-8365
▁IB	-8366
▁Jo	-8367
▁NO	-8368
▁NT	-8369
▁ev	-8370
▁고민	-8371
▁골든	-8372
▁귀환	-8373
▁그중	-8374
▁기기	-8375
▁기적	-8376
▁끌고	-8377
▁내게	-8378
▁내내	-8379
▁내세	-8380
▁넣을	-8381
▁눈이	-8382
▁눌러	-8383
▁다들	-8384
▁돋보	-8385
▁동맹	-8386
▁동화	-8387
▁뜻을	-8388
▁매스	-8389
▁매치	-8390
▁머신	-8391
▁멀리	-8392
▁멋진	-8393
▁버추	-8394
▁범죄	-8395
▁보일	-8396
▁브래	-8397
▁빼고	-8398
▁상급	-8399
▁상하	-8400
▁순수	-8401
▁시야	-8402
▁쓰레	-8403
▁아들	-8404
▁얻은	-8405
▁열차	-8406
▁영암	-8407
▁영혼	-8408
▁오락	-8409
▁외계	-8410
▁왼손	-8411
▁용인	-8412
▁원칙	-8413
▁자살	-8414
▁잡고	-8415
▁재정	-8416
▁적어	-8417
▁정석	-8418
▁제트	-8419
▁중동	-8420
▁직선	-8421
▁추적	-8422
▁크레	-8423
▁탐지	-8424
▁표절	-8425
▁플러	-8426
▁하니	-8427
▁하에	-8428
▁한마	-8429
▁형성	-8430
▁호위	-8431
▁홀드	-8432
▁후의	-8433
강에서	-8434
대에서	-8435
데다가	-8436
리아의	-8437
마나로	-8438
받았다	-8439
스트가	-8440
시켜서	-8441
어에서	-8442
있는데	-8443
쪽에서	-8444
하다면	-8445
APPY	-8446
IGHT	-8447
ater	-8448
itar	-8449
▁10,	-8450
▁320	-8451
▁333	-8452
▁Art	-8453
▁DMP	-8454
▁IPL	-8455
▁PUC	-8456
▁가볍게	-8457
▁갈수록	-8458
▁것이라	-8459
▁결과는	-8460
▁곧바로	-8461
▁광저우	-8462
▁글로벌	-8463
▁기체의	-8464
▁끝으로	-8465
▁넘치는	-8466
▁데다가	-8467
▁도로를	-8468
▁똑같다	-8469
▁리애니	-8470
▁매그넘	-8471
▁모양의	-8472
▁바꾸고	-8473
▁박자를	-8474
▁방송국	-8475
▁버전과	-8476
▁비틀즈	-8477
▁설정이	-8478
▁속도를	-8479
▁스파이	-8480
▁시작해	-8481
▁싸우는	-8482
▁아카데	-8483
▁없었고	-8484
▁이라크	-8485
▁이상은	-8486
▁이어져	-8487
▁인하여	-8488
▁일으킨	-8489
▁있어도	-8490
▁적절한	-8491
▁전까지	-8492
▁정도가	-8493
▁제한이	-8494
▁초반의	-8495
▁최후의	-8496
▁토너먼	-8497
▁훌륭한	-8498
상으로는	-8499
필레이션	-8500
ANCED	-8501
ammer	-8502
order	-8503
ouble	-8504
▁Dest	-8505
▁Free	-8506
▁come	-8507
▁make	-8508
▁were	-8509
▁그러다가	-8510
▁기동전사	-8511
▁기타드럼	-8512
▁나타내는	-8513
▁내용이다	-8514
▁돌격소총	-8515
▁따라간다	-8516
▁밝혀졌다	-8517
▁비교하면	-8518
▁아일랜드	-8519
▁없으므로	-8520
▁오랜만에	-8521
▁이름이다	-8522
▁이상으로	-8523
▁주인공의	-8524
▁지나치게	-8525
▁표기한다	-8526
▁하더라도	-8527
▁활동하고	-8528
▁당선곡이다	-8529
▁되어버렸다	-8530
▁보컬리스트	-8531
▁워크래프트	-8532
▁일렉트로닉	-8533
▁엘리미네이션	-8534
▁예정이었으나	-8535
▁tonight	-8536
▁국가지원지방도	-8537
(<	-8538
93	-8539
Bl	-8540
Lv	-8541
NA	-8542
SE	-8543
YS	-8544
aa	-8545
▁び	-8546
▁균	-8547
▁깜	-8548
▁끔	-8549
▁냈	-8550
▁묵	-8551
▁뵙	-8552
▁으	-8553
▁튕	-8554
▁핑	-8555
しい	-8556
가고	-8557
각을	-8558
고리	-8559
구경	-8560
구로	-8561
글라	-8562
드레	-8563
등이	-8564
범위	-8565
소한	-8566
속이	-8567
수와	-8568
시타	-8569
신은	-8570
아아	-8571
월한	-8572
의로	-8573
자동	-8574
장과	-8575
저그	-8576
제한	-8577
지자	-8578
초의	-8579
칭은	-8580
크와	-8581
하진	-8582
해가	-8583
현황	-8584
/60	-8585
ERO	-8586
ada	-8587
adi	-8588
bit	-8589
ina	-8590
oth	-8591
ror	-8592
tro	-8593
une	-8594
ute	-8595
▁(4	-8596
▁-2	-8597
▁00	-8598
▁AH	-8599
▁GS	-8600
▁IC	-8601
▁La	-8602
▁OG	-8603
▁Ph	-8604
▁UN	-8605
▁가르	-8606
▁가오	-8607
▁공산	-8608
▁군인	-8609
▁규격	-8610
▁끊어	-8611
▁나를	-8612
▁내한	-8613
▁높고	-8614
▁담고	-8615
▁때에	-8616
▁레어	-8617
▁말아	-8618
▁맞지	-8619
▁매년	-8620
▁모토	-8621
▁무관	-8622
▁미노	-8623
▁미라	-8624
▁반짝	-8625
▁부가	-8626
▁부드	-8627
▁분홍	-8628
▁빼면	-8629
▁사가	-8630
▁사무	-8631
▁세컨	-8632
▁소스	-8633
▁싸우	-8634
▁쓰게	-8635
▁아베	-8636
▁안타	-8637
▁암흑	-8638
▁애용	-8639
▁약화	-8640
▁여객	-8641
▁여명	-8642
▁역이	-8643
▁연관	-8644
▁이르	-8645
▁일시	-8646
▁적합	-8647
▁전뇌	-8648
▁전면	-8649
▁점도	-8650
▁주포	-8651
▁지명	-8652
▁찍어	-8653
▁초견	-8654
▁카미	-8655
▁커먼	-8656
▁타치	-8657
▁터보	-8658
▁텔레	-8659
▁트럭	-8660
▁평화	-8661
▁필름	-8662
▁해발	-8663
▁핸드	-8664
▁향상	-8665
▁혼란	-8666
▁흡사	-8667
▁희귀	-8668
공화국	-8669
궐선거	-8670
는다면	-8671
선승제	-8672
시키기	-8673
았으며	-8674
카모토	-8675
/140	-8676
1000	-8677
AUST	-8678
CORE	-8679
NOVA	-8680
REAK	-8681
eath	-8682
ents	-8683
idge	-8684
idth	-8685
orea	-8686
ster	-8687
▁06.	-8688
▁BOF	-8689
▁DLC	-8690
▁Dyn	-8691
▁Far	-8692
▁Par	-8693
▁RAY	-8694
▁Red	-8695
▁SBS	-8696
▁SKY	-8697
▁con	-8698
▁man	-8699
▁간단히	-8700
▁고개가	-8701
▁고성능	-8702
▁관심이	-8703
▁국도의	-8704
▁꺼내는	-8705
▁노래의	-8706
▁누르면	-8707
▁도움이	-8708
▁동메달	-8709
▁또다시	-8710
▁모델은	-8711
▁모드로	-8712
▁버린다	-8713
▁버전인	-8714
▁베이직	-8715
▁보면이	-8716
▁보였다	-8717
▁부스터	-8718
▁생명점	-8719
▁성공한	-8720
▁쓰기도	-8721
▁어디서	-8722
▁얼굴을	-8723
▁열리는	-8724
▁오른손	-8725
▁울트라	-8726
▁위치해	-8727
▁윌리엄	-8728
▁유로파	-8729
▁일부가	-8730
▁있겠다	-8731
▁장점이	-8732
▁적당한	-8733
▁전체가	-8734
▁정보가	-8735
▁정확한	-8736
▁조건이	-8737
▁준결승	-8738
▁총연장	-8739
▁충격을	-8740
▁코드를	-8741
▁콜레트	-8742
▁평가는	-8743
▁한글판	-8744
▁항공모	-8745
▁했다고	-8746
리에이션	-8747
만으로도	-8748
하였는데	-8749
ivers	-8750
layer	-8751
scape	-8752
▁1960	-8753
▁1983	-8754
▁3000	-8755
▁Comp	-8756
▁Kiss	-8757
▁Open	-8758
▁That	-8759
▁This	-8760
▁난이도의	-8761
▁대회이다	-8762
▁들어가면	-8763
▁등장하며	-8764
▁리그에서	-8765
▁무엇보다	-8766
▁사용하여	-8767
▁서비스를	-8768
▁선보였다	-8769
▁성공했다	-8770
▁아무것도	-8771
▁어피니티	-8772
▁원곡으로	-8773
▁유저들의	-8774
▁이벤트로	-8775
▁정확하게	-8776
▁컨셉으로	-8777
▁트랙으로	-8778
▁한정으로	-8779
▁항목으로	-8780
▁후반부의	-8781
▁+1/+1	-8782
▁Break	-8783
▁FINAL	-8784
▁there	-8785
▁결정적으로	-8786
▁부산광역시	-8787
▁생각해보면	-8788
▁일러스트가	-8789
▁입장에서는	-8790
▁컴필레이션	-8791
▁EXHAUST	-8792
▁ADVANCED	-8793
▁Championship	-8794
(4	-8795
)]	-8796
UE	-8797
YO	-8798
be	-8799
kt	-8800
sm	-8801
ux	-8802
uy	-8803
▁い	-8804
▁둥	-8805
▁뱅	-8806
▁빵	-8807
▁쏜	-8808
▁층	-8809
감독	-8810
개씩	-8811
격포	-8812
과학	-8813
내에	-8814
도감	-8815
령군	-8816
론이	-8817
류탄	-8818
마를	-8819
매치	-8820
물의	-8821
비드	-8822
사람	-8823
살기	-8824
성한	-8825
속을	-8826
스텔	-8827
승을	-8828
시험	-8829
약이	-8830
업체	-8831
에너	-8832
연결	-8833
왔던	-8834
웃음	-8835
있던	-8836
작은	-8837
작인	-8838
작전	-8839
조서	-8840
질의	-8841
티넘	-8842
판인	-8843
프리	-8844
할때	-8845
해금	-8846
(!)	-8847
esh	-8848
iam	-8849
ren	-8850
▁41	-8851
▁65	-8852
▁FE	-8853
▁GO	-8854
▁LP	-8855
▁SD	-8856
▁UK	-8857
▁가을	-8858
▁가짜	-8859
▁값을	-8860
▁걸린	-8861
▁검열	-8862
▁꺾고	-8863
▁끝내	-8864
▁남겨	-8865
▁너를	-8866
▁농구	-8867
▁니시	-8868
▁단지	-8869
▁동생	-8870
▁두드	-8871
▁레오	-8872
▁마술	-8873
▁막을	-8874
▁많기	-8875
▁모니	-8876
▁버려	-8877
▁번갈	-8878
▁보자	-8879
▁뽑을	-8880
▁서부	-8881
▁세대	-8882
▁소울	-8883
▁스킨	-8884
▁스태	-8885
▁시에	-8886
▁시종	-8887
▁실사	-8888
▁썼다	-8889
▁아기	-8890
▁연맹	-8891
▁왜냐	-8892
▁위주	-8893
▁으로	-8894
▁이글	-8895
▁이기	-8896
▁이놈	-8897
▁이득	-8898
▁이승	-8899
▁잔뜩	-8900
▁장수	-8901
▁제임	-8902
▁조성	-8903
▁조용	-8904
▁죽일	-8905
▁중견	-8906
▁직역	-8907
▁질주	-8908
▁집단	-8909
▁차봉	-8910
▁차분	-8911
▁창녕	-8912
▁토끼	-8913
▁판본	-8914
▁팔레	-8915
▁팬들	-8916
▁해병	-8917
▁형제	-8918
▁효율	-8919
▁후쿠	-8920
권으로	-8921
다보면	-8922
세대형	-8923
에다가	-8924
자에게	-8925
하려면	-8926
했기에	-8927
호선이	-8928
ague	-8929
ause	-8930
erry	-8931
irty	-8932
▁0.5	-8933
▁1:1	-8934
▁765	-8935
▁Arm	-8936
▁BNK	-8937
▁Cor	-8938
▁Del	-8939
▁Hey	-8940
▁Ill	-8941
▁Mod	-8942
▁NAT	-8943
▁NMB	-8944
▁Pop	-8945
▁TRA	-8946
▁Ult	-8947
▁pro	-8948
▁갖추고	-8949
▁개발을	-8950
▁개발이	-8951
▁걸리는	-8952
▁결과를	-8953
▁곡에서	-8954
▁과거의	-8955
▁나쁘지	-8956
▁넘는다	-8957
▁단행본	-8958
▁도로로	-8959
▁뒤에는	-8960
▁뛰어나	-8961
▁라이플	-8962
▁맞춰서	-8963
▁모조리	-8964
▁무료로	-8965
▁바이러	-8966
▁발생한	-8967
▁보다는	-8968
▁보이고	-8969
▁블록의	-8970
▁뿐이다	-8971
▁사업을	-8972
▁소련의	-8973
▁쓸만한	-8974
▁아니기	-8975
▁아직도	-8976
▁어드밴	-8977
▁어째서	-8978
▁없으나	-8979
▁영상은	-8980
▁올라온	-8981
▁이것도	-8982
▁이끄는	-8983
▁입힌다	-8984
▁있기도	-8985
▁자료를	-8986
▁자신은	-8987
▁전세계	-8988
▁제공한	-8989
▁조금씩	-8990
▁창원시	-8991
▁체력을	-8992
▁최대의	-8993
▁치명타	-8994
▁카드에	-8995
▁컨텐츠	-8996
▁클라우	-8997
▁팀으로	-8998
▁프로레	-8999
▁해군의	-9000
▁화려한	-9001
곡리에서	-9002
인데다가	-9003
정리에서	-9004
현황조서	-9005
(2015	-9006
iquid	-9007
▁ASUS	-9008
▁Land	-9009
▁Last	-9010
▁Like	-9011
▁They	-9012
▁baby	-9013
▁life	-9014
▁tric	-9015
▁경계에서	-9016
▁그렇다고	-9017
▁따라가는	-9018
▁떨어진다	-9019
▁러시아의	-9020
▁루마니아	-9021
▁모티브는	-9022
▁무난하게	-9023
▁방법으로	-9024
▁버전이다	-9025
▁사용하며	-9026
▁순서대로	-9027
▁스타리그	-9028
▁스토리를	-9029
▁스페이스	-9030
▁시즌에는	-9031
▁않는다는	-9032
▁압도적인	-9033
▁오랫동안	-9034
▁웹사이트	-9035
▁유탄발사	-9036
▁일어났다	-9037
▁잉글랜드	-9038
▁자유롭게	-9039
▁전국도감	-9040
▁전반적인	-9041
▁주인공인	-9042
▁참가하지	-9043
▁팬들에게	-9044
▁페스티벌	-9045
▁프로그레	-9046
▁플래티넘	-9047
▁Bunny	-9048
▁HAPPY	-9049
▁Movie	-9050
▁Vocal	-9051
▁width	-9052
▁모르겠지만	-9053
▁보컬로이드	-9054
▁재보궐선거	-9055
리삼거리에서	-9056
▁Anthem	-9057
▁도로현황조서	-9058
▁INFINITAS	-9059
▁SuperNOVA	-9060
66	-9061
GP	-9062
MS	-9063
OX	-9064
Tr	-9065
UL	-9066
oz	-9067
ym	-9068
▁キ	-9069
▁君	-9070
▁뜯	-9071
▁몹	-9072
▁숏	-9073
▁씬	-9074
▁윙	-9075
▁촉	-9076
▁켈	-9077
っと	-9078
なた	-9079
가서	-9080
계로	-9081
공을	-9082
들만	-9083
등록	-9084
라노	-9085
랭커	-9086
리노	-9087
리타	-9088
마츠	-9089
물은	-9090
바라	-9091
병기	-9092
보가	-9093
생산	-9094
센트	-9095
시고	-9096
아와	-9097
안에	-9098
어와	-9099
원과	-9100
원읍	-9101
이치	-9102
있기	-9103
있어	-9104
점의	-9105
지한	-9106
친구	-9107
커먼	-9108
편에	-9109
포구	-9110
한의	-9111
.12	-9112
INE	-9113
ROM	-9114
ROW	-9115
awn	-9116
for	-9117
▁58	-9118
▁AU	-9119
▁DA	-9120
▁ER	-9121
▁FL	-9122
▁Sm	-9123
▁XP	-9124
▁gl	-9125
▁iP	-9126
▁간다	-9127
▁같아	-9128
▁걸쳐	-9129
▁경영	-9130
▁골드	-9131
▁관중	-9132
▁글자	-9133
▁낚시	-9134
▁노벨	-9135
▁노출	-9136
▁댓글	-9137
▁데드	-9138
▁도와	-9139
▁도주	-9140
▁마산	-9141
▁메타	-9142
▁모션	-9143
▁미사	-9144
▁미식	-9145
▁볼수	-9146
▁부서	-9147
▁빼앗	-9148
▁선곡	-9149
▁성립	-9150
▁손꼽	-9151
▁송출	-9152
▁쉬우	-9153
▁시민	-9154
▁시키	-9155
▁식의	-9156
▁신청	-9157
▁아츠	-9158
▁아트	-9159
▁어깨	-9160
▁여섯	-9161
▁올린	-9162
▁위로	-9163
▁유료	-9164
▁일행	-9165
▁있음	-9166
▁장전	-9167
▁전후	-9168
▁점프	-9169
▁제너	-9170
▁제시	-9171
▁제이	-9172
▁좌절	-9173
▁즉시	-9174
▁차체	-9175
▁착용	-9176
▁청도	-9177
▁최하	-9178
▁충전	-9179
▁커다	-9180
▁크기	-9181
▁타는	-9182
▁통일	-9183
▁투수	-9184
▁포스	-9185
▁하향	-9186
▁현지	-9187
▁협력	-9188
▁확대	-9189
▁황금	-9190
게이머	-9191
네시아	-9192
능력을	-9193
월에는	-9194
지기도	-9195
팀에게	-9196
-201	-9197
Fone	-9198
adow	-9199
ange	-9200
edia	-9201
reen	-9202
side	-9203
▁CAN	-9204
▁Min	-9205
▁Mon	-9206
▁Off	-9207
▁Ray	-9208
▁his	-9209
▁가끔씩	-9210
▁가사에	-9211
▁각각의	-9212
▁개인전	-9213
▁경우엔	-9214
▁과거에	-9215
▁관련이	-9216
▁궁합이	-9217
▁그동안	-9218
▁그림을	-9219
▁기록은	-9220
▁당시엔	-9221
▁뛰어넘	-9222
▁뜻으로	-9223
▁레거시	-9224
▁마우스	-9225
▁만들기	-9226
▁맞추는	-9227
▁멤버인	-9228
▁모르고	-9229
▁미로딘	-9230
▁미즈키	-9231
▁받아서	-9232
▁방식이	-9233
▁보면은	-9234
▁블리자	-9235
▁사명을	-9236
▁순위가	-9237
▁스티브	-9238
▁쓰이지	-9239
▁아이디	-9240
▁애매한	-9241
▁없다면	-9242
▁올라간	-9243
▁올리는	-9244
▁요소가	-9245
▁음악은	-9246
▁이름인	-9247
▁이번에	-9248
▁자리잡	-9249
▁자세히	-9250
▁주제가	-9251
▁중반의	-9252
▁직전에	-9253
▁태평양	-9254
▁트라이	-9255
▁트레이	-9256
▁특별한	-9257
▁패턴도	-9258
▁하거나	-9259
▁하나만	-9260
▁하이브	-9261
되었다는	-9262
었습니다	-9263
에서부터	-9264
(2014	-9265
isode	-9266
▁1972	-9267
▁Over	-9268
▁Plat	-9269
▁Side	-9270
▁Tour	-9271
▁True	-9272
▁결정한다	-9273
▁고난이도	-9274
▁곡이었다	-9275
▁국내에서	-9276
▁남아있는	-9277
▁들어있다	-9278
▁디비시온	-9279
▁디자이어	-9280
▁만들어서	-9281
▁무덤으로	-9282
▁배경음악	-9283
▁사람들도	-9284
▁생각하는	-9285
▁스케이팅	-9286
▁시리즈로	-9287
▁시절에는	-9288
▁알려지지	-9289
▁어떻게든	-9290
▁엘드라지	-9291
▁여기에서	-9292
▁연결되어	-9293
▁연속으로	-9294
▁작중에서	-9295
▁전환마나	-9296
▁제공하는	-9297
▁플레이가	-9298
▁해당한다	-9299
▁후지모리	-9300
igital	-9301
▁Girls	-9302
▁Honey	-9303
▁SPADA	-9304
▁every	-9305
▁등장하는데	-9306
▁연상시키는	-9307
▁Battle	-9308
▁프로그레시브	-9309
▁ZenFone	-9310
▁International	-9311
?'	-9312
eg	-9313
ml	-9314
ps	-9315
▁겉	-9316
▁곰	-9317
▁둠	-9318
▁뻥	-9319
▁샵	-9320
▁썬	-9321
▁줘	-9322
▁쯤	-9323
▁찰	-9324
▁혜	-9325
めて	-9326
가미	-9327
관왕	-9328
내로	-9329
냐고	-9330
노스	-9331
니트	-9332
다림	-9333
되자	-9334
라타	-9335
란히	-9336
링이	-9337
마이	-9338
막을	-9339
만은	-9340
메가	-9341
브로	-9342
사포	-9343
상한	-9344
성읍	-9345
순환	-9346
약한	-9347
어는	-9348
영웅	-9349
음에	-9350
일반	-9351
장난	-9352
장면	-9353
종의	-9354
촌면	-9355
카오	-9356
테일	-9357
트릴	-9358
트컵	-9359
퍼니	-9360
편의	-9361
편이	-9362
플래	-9363
함은	-9364
회에	-9365
AKB	-9366
AMP	-9367
ana	-9368
ely	-9369
ged	-9370
ula	-9371
▁(2	-9372
▁5:	-9373
▁ID	-9374
▁If	-9375
▁KA	-9376
▁MM	-9377
▁Py	-9378
▁Sl	-9379
▁강남	-9380
▁거듭	-9381
▁거주	-9382
▁건넌	-9383
▁경량	-9384
▁고수	-9385
▁곳은	-9386
▁공기	-9387
▁괴물	-9388
▁끝날	-9389
▁끼고	-9390
▁나면	-9391
▁남면	-9392
▁놓은	-9393
▁늦게	-9394
▁단축	-9395
▁단타	-9396
▁답이	-9397
▁당장	-9398
▁대답	-9399
▁대물	-9400
▁대진	-9401
▁던져	-9402
▁도달	-9403
▁동남	-9404
▁두려	-9405
▁듀오	-9406
▁러시	-9407
▁리스	-9408
▁리프	-9409
▁마드	-9410
▁마침	-9411
▁매드	-9412
▁몰라	-9413
▁방호	-9414
▁밸런	-9415
▁버린	-9416
▁보인	-9417
▁부장	-9418
▁브로	-9419
▁살인	-9420
▁소음	-9421
▁수영	-9422
▁수용	-9423
▁시너	-9424
▁신의	-9425
▁아미	-9426
▁악명	-9427
▁압권	-9428
▁야스	-9429
▁에릭	-9430
▁여유	-9431
▁연쇄	-9432
▁영업	-9433
▁오타	-9434
▁왔다	-9435
▁의료	-9436
▁일컫	-9437
▁일품	-9438
▁장치	-9439
▁전진	-9440
▁전폭	-9441
▁제독	-9442
▁조준	-9443
▁좁아	-9444
▁즐기	-9445
▁지적	-9446
▁총알	-9447
▁카테	-9448
▁카트	-9449
▁코파	-9450
▁콜로	-9451
▁키타	-9452
▁투자	-9453
▁패스	-9454
▁프렌	-9455
▁하얀	-9456
▁한타	-9457
▁향해	-9458
▁호남	-9459
개국이	-9460
게이트	-9461
경기를	-9462
노트를	-9463
다보니	-9464
당하고	-9465
되므로	-9466
들에겐	-9467
명이다	-9468
번째로	-9469
베이터	-9470
비용이	-9471
비트로	-9472
속도를	-9473
으로만	-9474
졌다고	-9475
족으로	-9476
/130	-9477
ards	-9478
ense	-9479
iful	-9480
rave	-9481
wiki	-9482
▁160	-9483
▁30%	-9484
▁350	-9485
▁AIM	-9486
▁Aud	-9487
▁Aut	-9488
▁GOT	-9489
▁IBM	-9490
▁Ind	-9491
▁Net	-9492
▁PON	-9493
▁Rep	-9494
▁Tom	-9495
▁des	-9496
▁new	-9497
▁가벼운	-9498
▁가사의	-9499
▁개념이	-9500
▁구간도	-9501
▁구성이	-9502
▁그룹의	-9503
▁근거로	-9504
▁기록이	-9505
▁당연한	-9506
▁덤으로	-9507
▁도로는	-9508
▁도움을	-9509
▁돌아오	-9510
▁들리는	-9511
▁또다른	-9512
▁리눅스	-9513
▁무지막	-9514
▁방향을	-9515
▁보통은	-9516
▁빈티지	-9517
▁빠르고	-9518
▁서해안	-9519
▁설정을	-9520
▁세계를	-9521
▁실시간	-9522
▁아마도	-9523
▁않았기	-9524
▁약칭은	-9525
▁어둠의	-9526
▁얻었다	-9527
▁없으면	-9528
▁영상의	-9529
▁음악의	-9530
▁이번엔	-9531
▁작업을	-9532
▁재활용	-9533
▁저렴한	-9534
▁조건을	-9535
▁주니어	-9536
▁진주시	-9537
▁진짜로	-9538
▁채보를	-9539
▁초기에	-9540
▁코미디	-9541
▁코버넌	-9542
▁크레이	-9543
▁탈다림	-9544
▁트레일	-9545
▁파란색	-9546
▁포스트	-9547
▁표시된	-9548
▁하나도	-9549
▁한번에	-9550
▁함안군	-9551
▁현재도	-9552
▁혼자서	-9553
▁화장품	-9554
▁화제가	-9555
▁확인할	-9556
경기에서	-9557
드립니다	-9558
지던트컵	-9559
차선으로	-9560
aking	-9561
board	-9562
inter	-9563
▁BERA	-9564
▁Kill	-9565
▁Soul	-9566
▁only	-9567
▁가리키는	-9568
▁곡이라고	-9569
▁곡입니다	-9570
▁그럼에도	-9571
▁담당하는	-9572
▁들어오는	-9573
▁뜬금없이	-9574
▁모양이다	-9575
▁모티브로	-9576
▁발사하는	-9577
▁발표했다	-9578
▁배틀필드	-9579
▁볼텍스의	-9580
▁사용되고	-9581
▁상대에게	-9582
▁세르비아	-9583
▁수록되지	-9584
▁실질적인	-9585
▁업그레이	-9586
▁올라갔다	-9587
▁이동속도	-9588
▁이스라엘	-9589
▁인공지능	-9590
▁인스브루	-9591
▁있겠지만	-9592
▁자동으로	-9593
▁작품으로	-9594
▁지나가는	-9595
▁집중마법	-9596
▁특징으로	-9597
▁프리미엄	-9598
▁허리케인	-9599
아르헨티나	-9600
utiful	-9601
▁Blood	-9602
▁EXTRA	-9603
▁Never	-9604
▁마리오네트	-9605
▁무시무시한	-9606
▁뵙겠습니다	-9607
▁이탈리아의	-9608
▁프로그램이	-9609
프레지던트컵	-9610
ination	-9611
▁Dragon	-9612
▁Heaven	-9613
▁believe	-9614
▁플레이스테이션	-9615
(=	-9616
)-	-9617
42	-9618
DL	-9619
Hz	-9620
UT	-9621
ju	-9622
▁ア	-9623
▁걷	-9624
▁뷰	-9625
▁삐	-9626
▁얹	-9627
▁엮	-9628
▁왈	-9629
▁쟈	-9630
▁캔	-9631
▁틈	-9632
▁헐	-9633
▁횟	-9634
가리	-9635
격한	-9636
공간	-9637
관을	-9638
관절	-9639
구에	-9640
국가	-9641
그라	-9642
급은	-9643
나간	-9644
나를	-9645
나의	-9646
내륙	-9647
님의	-9648
단은	-9649
더스	-9650
덕면	-9651
둥이	-9652
러브	-9653
령로	-9654
령이	-9655
로써	-9656
루스	-9657
림을	-9658
마가	-9659
마크	-9660
무로	-9661
미스	-9662
미야	-9663
박자	-9664
발로	-9665
발의	-9666
버가	-9667
번가	-9668
보를	-9669
비탈	-9670
사격	-9671
사령	-9672
생이	-9673
설을	-9674
세로	-9675
세스	-9676
수지	-9677
아버	-9678
연구	-9679
위해	-9680
이테	-9681
있지	-9682
자에	-9683
저런	-9684
저리	-9685
주기	-9686
주에	-9687
즈에	-9688
쾌한	-9689
타의	-9690
터는	-9691
티스	-9692
팀을	-9693
파로	-9694
학년	-9695
한국	-9696
항목	-9697
활동	-9698
회는	-9699
회를	-9700
/45	-9701
/80	-9702
ais	-9703
ele	-9704
mar	-9705
oog	-9706
ted	-9707
ush	-9708
▁Av	-9709
▁EA	-9710
▁EG	-9711
▁HA	-9712
▁MI	-9713
▁MT	-9714
▁SR	-9715
▁im	-9716
▁pl	-9717
▁가스	-9718
▁가치	-9719
▁걸고	-9720
▁고가	-9721
▁고도	-9722
▁곤란	-9723
▁길어	-9724
▁남양	-9725
▁남한	-9726
▁넘게	-9727
▁눈치	-9728
▁다리	-9729
▁대량	-9730
▁더해	-9731
▁데에	-9732
▁동양	-9733
▁들이	-9734
▁마도	-9735
▁말한	-9736
▁맨슨	-9737
▁메르	-9738
▁모빌	-9739
▁목숨	-9740
▁몰려	-9741
▁무지	-9742
▁묻혀	-9743
▁미묘	-9744
▁바르	-9745
▁번씩	-9746
▁보정	-9747
▁붙잡	-9748
▁색이	-9749
▁선전	-9750
▁소멸	-9751
▁소화	-9752
▁수중	-9753
▁수호	-9754
▁스택	-9755
▁습득	-9756
▁신시	-9757
▁신호	-9758
▁어른	-9759
▁어펜	-9760
▁얻고	-9761
▁엘레	-9762
▁영창	-9763
▁옵션	-9764
▁원조	-9765
▁의혹	-9766
▁이들	-9767
▁이정	-9768
▁자이	-9769
▁적도	-9770
▁제단	-9771
▁증기	-9772
▁지점	-9773
▁진화	-9774
▁참전	-9775
▁찾을	-9776
▁천재	-9777
▁청송	-9778
▁청취	-9779
▁체계	-9780
▁치킨	-9781
▁칩셋	-9782
▁커플	-9783
▁클로	-9784
▁폴더	-9785
▁풀콤	-9786
▁현역	-9787
▁호러	-9788
▁호불	-9789
▁확산	-9790
▁환승	-9791
▁회수	-9792
▁히카	-9793
는지는	-9794
되거나	-9795
먹는다	-9796
버전이	-9797
법으로	-9798
부에서	-9799
스토랑	-9800
신다면	-9801
어버린	-9802
졌으나	-9803
주인공	-9804
카이도	-9805
타나베	-9806
틀랜드	-9807
판에는	-9808
했어요	-9809
ated	-9810
etic	-9811
icro	-9812
oint	-9813
post	-9814
rise	-9815
work	-9816
▁07.	-9817
▁122	-9818
▁ALL	-9819
▁Hun	-9820
▁ICE	-9821
▁LEG	-9822
▁Met	-9823
▁gro	-9824
▁who	-9825
▁가진다	-9826
▁간간히	-9827
▁기반의	-9828
▁기원전	-9829
▁나가는	-9830
▁나고야	-9831
▁나라의	-9832
▁단어를	-9833
▁대단히	-9834
▁대회가	-9835
▁드러머	-9836
▁라그나	-9837
▁마이너	-9838
▁못했고	-9839
▁무서운	-9840
▁미개통	-9841
▁바뀌어	-9842
▁바이오	-9843
▁발매일	-9844
▁별개의	-9845
▁빠르다	-9846
▁산탄총	-9847
▁서고를	-9848
▁선수들	-9849
▁스텔스	-9850
▁스폰서	-9851
▁신경쓰	-9852
▁암트랙	-9853
▁예선에	-9854
▁외국인	-9855
▁이른바	-9856
▁이쪽도	-9857
▁이쪽이	-9858
▁인간의	-9859
▁있었을	-9860
▁잉그램	-9861
▁장착된	-9862
▁재등장	-9863
▁저격총	-9864
▁적절히	-9865
▁전설의	-9866
▁전작과	-9867
▁제작을	-9868
▁제주시	-9869
▁좋아서	-9870
▁쪽으로	-9871
▁터미널	-9872
▁편이고	-9873
▁편하다	-9874
천리에서	-9875
함으로서	-9876
ROOVE	-9877
lease	-9878
▁7.62	-9879
▁Form	-9880
▁From	-9881
▁Plan	-9882
▁Stud	-9883
▁have	-9884
▁song	-9885
▁they	-9886
▁경유지는	-9887
▁공격하는	-9888
▁공식적인	-9889
▁금메달을	-9890
▁기본으로	-9891
▁나왔으며	-9892
▁드래프트	-9893
▁들어가서	-9894
▁들어있는	-9895
▁멤버들은	-9896
▁방식이다	-9897
▁버전에서	-9898
▁보유하고	-9899
▁불가능한	-9900
▁상대방이	-9901
▁상대한테	-9902
▁서고에서	-9903
▁시나리오	-9904
▁시작해서	-9905
▁아니냐는	-9906
▁어드벤처	-9907
▁움직이는	-9908
▁이름에서	-9909
▁이미지는	-9910
▁이용하는	-9911
▁자신들의	-9912
▁중부내륙	-9913
▁지원하지	-9914
▁진출한다	-9915
▁타치바나	-9916
▁탈락했다	-9917
▁팔레스타	-9918
▁페널티가	-9919
ations	-9920
▁(...)	-9921
▁Cloud	-9922
▁Devil	-9923
▁Extra	-9924
▁사람들에게	-9925
▁사이트에서	-9926
▁상향되었다	-9927
▁자연스럽게	-9928
▁전라남도의	-9929
▁충청남도의	-9930
▁플레이어의	-9931
lection	-9932
▁Miracle	-9933
▁tricoro	-9934
▁Infinity	-9935
05	-9936
9,	-9937
Cl	-9938
KS	-9939
On	-9940
TB	-9941
ZZ	-9942
bb	-9943
ka	-9944
ti	-9945
},	-9946
▁섀	-9947
▁쉴	-9948
▁융	-9949
▁풋	-9950
いた	-9951
까진	-9952
나고	-9953
나요	-9954
내기	-9955
니시	-9956
닉스	-9957
단과	-9958
당이	-9959
대구	-9960
더의	-9961
던지	-9962
도도	-9963
드래	-9964
라를	-9965
량도	-9966
레가	-9967
령을	-9968
류의	-9969
림이	-9970
말을	-9971
바스	-9972
벼락	-9973
분이	-9974
블랙	-9975
생의	-9976
선은	-9977
소리	-9978
스틴	-9979
실로	-9980
심을	-9981
야기	-9982
여야	-9983
오와	-9984
외의	-9985
월드	-9986
음속	-9987
작품	-9988
저래	-9989
정면	-9990
조직	-9991
종목	-9992
중국	-9993
중한	-9994
지컬	-9995
차례	-9996
천을	-9997
치면	-9998
커가	-9999
킬을	-10000
타리	-10001
토가	-10002
포머	-10003
현이	-10004
혈귀	-10005
ART	-10006
ENT	-10007
For	-10008
Tri	-10009
ann	-10010
ata	-10011
ful	-10012
ied	-10013
ium	-10014
key	-10015
pro	-10016
thm	-10017
uff	-10018
ype	-10019
▁(3	-10020
▁CW	-10021
▁HP	-10022
▁IE	-10023
▁Ur	-10024
▁XB	-10025
▁ab	-10026
▁se	-10027
▁가고	-10028
▁가시	-10029
▁거야	-10030
▁걱정	-10031
▁격발	-10032
▁곡명	-10033
▁곳에	-10034
▁공습	-10035
▁공작	-10036
▁공짜	-10037
▁과연	-10038
▁교황	-10039
▁귀엽	-10040
▁극단	-10041
▁김영	-10042
▁난다	-10043
▁남지	-10044
▁너의	-10045
▁네가	-10046
▁노리	-10047
▁높지	-10048
▁단종	-10049
▁돌입	-10050
▁디아	-10051
▁디펜	-10052
▁때가	-10053
▁뜻의	-10054
▁리밋	-10055
▁말은	-10056
▁맞고	-10057
▁몸이	-10058
▁무력	-10059
▁물어	-10060
▁민주	-10061
▁믿고	-10062
▁바꿀	-10063
▁번도	-10064
▁번안	-10065
▁보너	-10066
▁본진	-10067
▁볼리	-10068
▁부진	-10069
▁부착	-10070
▁빌드	-10071
▁빌딩	-10072
▁사쿠	-10073
▁산청	-10074
▁상기	-10075
▁센트	-10076
▁수수	-10077
▁수학	-10078
▁숙련	-10079
▁스네	-10080
▁스티	-10081
▁시범	-10082
▁신기	-10083
▁실려	-10084
▁아쿠	-10085
▁안겨	-10086
▁여타	-10087
▁연료	-10088
▁예로	-10089
▁올릴	-10090
▁욕을	-10091
▁용병	-10092
▁울산	-10093
▁위엄	-10094
▁육상	-10095
▁의문	-10096
▁의사	-10097
▁잊혀	-10098
▁자국	-10099
▁재료	-10100
▁저런	-10101
▁전성	-10102
▁전신	-10103
▁점차	-10104
▁제네	-10105
▁젠디	-10106
▁주도	-10107
▁주지	-10108
▁지그	-10109
▁지미	-10110
▁직진	-10111
▁진영	-10112
▁착각	-10113
▁천안	-10114
▁철갑	-10115
▁코피	-10116
▁터뜨	-10117
▁턴테	-10118
▁통제	-10119
▁퍼즐	-10120
▁페어	-10121
▁프론	-10122
▁피렉	-10123
▁하동	-10124
▁할수	-10125
▁현상	-10126
▁혹시	-10127
▁흥행	-10128
금융지	-10129
되지는	-10130
부터가	-10131
사운드	-10132
세이브	-10133
슬러그	-10134
월까지	-10135
음으로	-10136
있었다	-10137
자들을	-10138
하고자	-10139
apan	-10140
ille	-10141
itch	-10142
nder	-10143
▁08.	-10144
▁4.5	-10145
▁Cos	-10146
▁Div	-10147
▁Ele	-10148
▁Got	-10149
▁Gro	-10150
▁NPC	-10151
▁TOM	-10152
▁Tem	-10153
▁rem	-10154
▁try	-10155
▁가졌다	-10156
▁강제로	-10157
▁개최한	-10158
▁걸그룹	-10159
▁게이트	-10160
▁계기가	-10161
▁계획을	-10162
▁공사가	-10163
▁과정을	-10164
▁기분이	-10165
▁다니는	-10166
▁대상이	-10167
▁따지면	-10168
▁라이선	-10169
▁라이프	-10170
▁많은데	-10171
▁머리에	-10172
▁명의의	-10173
▁모두가	-10174
▁모습은	-10175
▁모아서	-10176
▁바뀌는	-10177
▁버스터	-10178
▁버전도	-10179
▁벌어진	-10180
▁별다른	-10181
▁보이며	-10182
▁본인은	-10183
▁부분도	-10184
▁비용이	-10185
▁사라진	-10186
▁삭제된	-10187
▁생물로	-10188
▁생방송	-10189
▁설립한	-10190
▁순양함	-10191
▁아쉬운	-10192
▁어떠한	-10193
▁어린이	-10194
▁엄밀히	-10195
▁예선은	-10196
▁와중에	-10197
▁유럽의	-10198
▁유용한	-10199
▁의미의	-10200
▁인상을	-10201
▁일반인	-10202
▁자신도	-10203
▁작가가	-10204
▁작품인	-10205
▁제작자	-10206
▁제치고	-10207
▁젤나가	-10208
▁주제로	-10209
▁중에는	-10210
▁지역을	-10211
▁지원을	-10212
▁차라리	-10213
▁커다란	-10214
▁타이거	-10215
▁폴란드	-10216
▁프로모	-10217
▁플러스	-10218
▁피해가	-10219
▁항목의	-10220
▁해주는	-10221
▁확실한	-10222
▁활동한	-10223
▁회사를	-10224
프로토스	-10225
함으로써	-10226
angel	-10227
eries	-10228
istol	-10229
night	-10230
obody	-10231
ought	-10232
▁100(	-10233
▁1968	-10234
▁1974	-10235
▁AEIC	-10236
▁Acid	-10237
▁Fore	-10238
▁Hero	-10239
▁IWGP	-10240
▁high	-10241
▁need	-10242
▁over	-10243
▁가능하고	-10244
▁것이라는	-10245
▁결승에서	-10246
▁까다롭다	-10247
▁나무위키	-10248
▁넘어가는	-10249
▁디자인을	-10250
▁디자인이	-10251
▁레스토랑	-10252
▁마드리드	-10253
▁무덤에서	-10254
▁번역되어	-10255
▁아마추어	-10256
▁아카데미	-10257
▁약자이다	-10258
▁오브젝트	-10259
▁이동한다	-10260
▁이미지로	-10261
▁주관하는	-10262
▁주인공은	-10263
▁지원한다	-10264
▁처리하는	-10265
▁타이틀을	-10266
▁턴테이블	-10267
▁특이하게	-10268
ection	-10269
▁Hello	-10270
▁White	-10271
▁가능하지만	-10272
▁라임라이트	-10273
▁메탈슬러그	-10274
▁미국에서는	-10275
▁바리에이션	-10276
▁삼거리에서	-10277
▁수정되었다	-10278
▁스코틀랜드	-10279
▁스테이지에	-10280
▁신디사이저	-10281
▁일러스트를	-10282
▁제작되었다	-10283
▁차지하였다	-10284
▁클리어하면	-10285
산삼거리에서	-10286
▁MASTER	-10287
▁Resort	-10288
▁Sphere	-10289
▁플레이오프에	-10290
▁Station	-10291
▁version	-10292
▁Memories	-10293
▁Electronic	-10294
56	-10295
Al	-10296
Sh	-10297
Un	-10298
YA	-10299
ru	-10300
xt	-10301
▁닫	-10302
▁벚	-10303
▁윗	-10304
▁햄	-10305
った	-10306
なら	-10307
るの	-10308
ール	-10309
곡로	-10310
곡에	-10311
공개	-10312
공원	-10313
규칙	-10314
길로	-10315
끄러	-10316
나카	-10317
내를	-10318
노의	-10319
니오	-10320
니혼	-10321
님이	-10322
다리	-10323
디에	-10324
만장	-10325
망을	-10326
맨의	-10327
못미	-10328
바가	-10329
바야	-10330
버렸	-10331
브가	-10332
빌딩	-10333
사고	-10334
산읍	-10335
스톤	-10336
았기	-10337
엔딩	-10338
오를	-10339
오면	-10340
오버	-10341
우우	-10342
우의	-10343
월의	-10344
인민	-10345
자들	-10346
장치	-10347
재를	-10348
전면	-10349
정로	-10350
졌기	-10351
증을	-10352
쪽의	-10353
참조	-10354
추고	-10355
치며	-10356
테네	-10357
팀의	-10358
평리	-10359
화면	-10360
히지	-10361
-74	-10362
.15	-10363
ITE	-10364
IUS	-10365
bum	-10366
con	-10367
ech	-10368
eck	-10369
ens	-10370
ird	-10371
til	-10372
uch	-10373
▁(1	-10374
▁DR	-10375
▁Ge	-10376
▁Lo	-10377
▁SF	-10378
▁fl	-10379
▁sc	-10380
▁감정	-10381
▁거친	-10382
▁구체	-10383
▁귀찮	-10384
▁그대	-10385
▁그로	-10386
▁기믹	-10387
▁끝이	-10388
▁냈다	-10389
▁느려	-10390
▁담은	-10391
▁당초	-10392
▁대조	-10393
▁대처	-10394
▁뒤의	-10395
▁따서	-10396
▁러닝	-10397
▁록맨	-10398
▁루트	-10399
▁마인	-10400
▁마주	-10401
▁만난	-10402
▁많지	-10403
▁말했	-10404
▁먹을	-10405
▁명명	-10406
▁몇번	-10407
▁모여	-10408
▁무선	-10409
▁무인	-10410
▁뭐가	-10411
▁미스	-10412
▁박스	-10413
▁반격	-10414
▁배드	-10415
▁변태	-10416
▁별의	-10417
▁병행	-10418
▁봐야	-10419
▁브루	-10420
▁사과	-10421
▁사원	-10422
▁서서	-10423
▁선사	-10424
▁선제	-10425
▁성남	-10426
▁세부	-10427
▁세션	-10428
▁쇼크	-10429
▁순항	-10430
▁스쿼	-10431
▁써먹	-10432
▁쓰일	-10433
▁아틀	-10434
▁어긋	-10435
▁어우	-10436
▁어필	-10437
▁에볼	-10438
▁연예	-10439
▁영역	-10440
▁예고	-10441
▁오전	-10442
▁위상	-10443
▁유발	-10444
▁유출	-10445
▁이집	-10446
▁인쇄	-10447
▁인원	-10448
▁인제	-10449
▁일도	-10450
▁일상	-10451
▁자원	-10452
▁전력	-10453
▁전멸	-10454
▁전의	-10455
▁제도	-10456
▁제압	-10457
▁조커	-10458
▁좁은	-10459
▁주된	-10460
▁지어	-10461
▁집에	-10462
▁찍은	-10463
▁체크	-10464
▁최우	-10465
▁최적	-10466
▁측정	-10467
▁크라	-10468
▁크림	-10469
▁탄종	-10470
▁트루	-10471
▁틀어	-10472
▁팀에	-10473
▁파우	-10474
▁프레	-10475
▁해양	-10476
▁해트	-10477
▁화력	-10478
▁화물	-10479
▁활발	-10480
구에서	-10481
나오는	-10482
문화재	-10483
비트가	-10484
시스템	-10485
시에서	-10486
시하는	-10487
실에서	-10488
일에서	-10489
있지만	-10490
초마다	-10491
피니트	-10492
해보자	-10493
회사로	-10494
/240	-10495
/400	-10496
1/-1	-10497
Open	-10498
fore	-10499
ific	-10500
olor	-10501
read	-10502
reme	-10503
stic	-10504
▁09.	-10505
▁BMD	-10506
▁Bad	-10507
▁Bel	-10508
▁EXO	-10509
▁Fri	-10510
▁JKT	-10511
▁Key	-10512
▁Nor	-10513
▁See	-10514
▁had	-10515
▁nag	-10516
▁건넌다	-10517
▁곡들의	-10518
▁곳으로	-10519
▁공개한	-10520
▁그려진	-10521
▁기묘한	-10522
▁기술은	-10523
▁나아가	-10524
▁나왔고	-10525
▁더이상	-10526
▁데뷔를	-10527
▁따리라	-10528
▁레벨은	-10529
▁만나게	-10530
▁메달을	-10531
▁모빌슈	-10532
▁목장이	-10533
▁못하면	-10534
▁밀리언	-10535
▁바꾸는	-10536
▁방법을	-10537
▁배터리	-10538
▁베이징	-10539
▁보스전	-10540
▁사건을	-10541
▁사이터	-10542
▁생각이	-10543
▁선택할	-10544
▁세이버	-10545
▁수록은	-10546
▁수치가	-10547
▁순으로	-10548
▁숫자가	-10549
▁아레나	-10550
▁안습한	-10551
▁안티가	-10552
▁앙코르	-10553
▁앨리스	-10554
▁어려울	-10555
▁엄연히	-10556
▁에서는	-10557
▁역사가	-10558
▁역시나	-10559
▁영원히	-10560
▁오로지	-10561
▁올라와	-10562
▁우리가	-10563
▁의견도	-10564
▁이펙터	-10565
▁인트로	-10566
▁인해서	-10567
▁임무를	-10568
▁자이언	-10569
▁전쟁을	-10570
▁전쟁이	-10571
▁전투를	-10572
▁정도다	-10573
▁정체는	-10574
▁제임스	-10575
▁제품은	-10576
▁조선소	-10577
▁주목을	-10578
▁주었다	-10579
▁줄어든	-10580
▁지역에	-10581
▁챌린저	-10582
▁캘리포	-10583
▁커서를	-10584
▁탄창을	-10585
▁통틀어	-10586
▁특별히	-10587
▁패시브	-10588
▁퍼스트	-10589
▁포터블	-10590
▁풀리그	-10591
▁한다고	-10592
▁형식을	-10593
▁활동이	-10594
▁효율이	-10595
되었다가	-10596
라운드에	-10597
암리에서	-10598
하더라도	-10599
ement	-10600
hythm	-10601
▁1944	-10602
▁1981	-10603
▁BEAT	-10604
▁Hell	-10605
▁PLAY	-10606
▁Take	-10607
▁eyes	-10608
▁then	-10609
▁거두었다	-10610
▁구간으로	-10611
▁롱버전이	-10612
▁볼리비아	-10613
▁사용해서	-10614
▁사일런트	-10615
▁소속으로	-10616
▁스토리는	-10617
▁시리즈인	-10618
▁아니었다	-10619
▁예정되어	-10620
▁운영하고	-10621
▁원정에서	-10622
▁이래저래	-10623
▁인상적인	-10624
▁입력한다	-10625
▁젠디카르	-10626
▁조별리그	-10627
▁중화민국	-10628
▁차트에서	-10629
▁참가하는	-10630
▁최종보스	-10631
▁카드이다	-10632
▁텍스트는	-10633
▁판매량은	-10634
▁표기되어	-10635
▁프로토스	-10636
▁호라이즌	-10637
▁활동하는	-10638
thTRAX	-10639
▁-1/-1	-10640
▁Andro	-10641
▁BLACK	-10642
▁Cross	-10643
▁Korea	-10644
▁Wanna	-10645
▁light	-10646
▁가능하다는	-10647
▁국도이지만	-10648
▁목장이야기	-10649
▁around	-10650
eautiful	-10651
!?	-10652
%)	-10653
+3	-10654
4-	-10655
52	-10656
86	-10657
87	-10658
CP	-10659
FM	-10660
Fi	-10661
MI	-10662
SA	-10663
SU	-10664
dj	-10665
▁\	-10666
▁ᡶ	-10667
▁덮	-10668
▁빗	-10669
▁읍	-10670
▁첨	-10671
▁콤	-10672
▁흠	-10673
▁흩	-10674
れた	-10675
가면	-10676
각형	-10677
거를	-10678
겠어	-10679
고속	-10680
교육	-10681
구는	-10682
기나	-10683
기어	-10684
기준	-10685
까요	-10686
나서	-10687
내며	-10688
니즘	-10689
덱에	-10690
디언	-10691
디움	-10692
러니	-10693
렉션	-10694
려야	-10695
력에	-10696
린의	-10697
마한	-10698
명씩	-10699
모의	-10700
바위	-10701
반의	-10702
버트	-10703
변을	-10704
봤자	-10705
비노	-10706
사랑	-10707
색은	-10708
스킨	-10709
액션	-10710
어에	-10711
연방	-10712
원면	-10713
위와	-10714
이이	-10715
제품	-10716
즈와	-10717
켰다	-10718
킨다	-10719
파트	-10720
편을	-10721
표가	-10722
해를	-10723
회가	-10724
Fun	-10725
aid	-10726
box	-10727
exe	-10728
ios	-10729
iro	-10730
ism	-10731
res	-10732
ton	-10733
▁0:	-10734
▁7,	-10735
▁CY	-10736
▁CZ	-10737
▁DO	-10738
▁Hy	-10739
▁KT	-10740
▁MY	-10741
▁NC	-10742
▁ee	-10743
▁びっ	-10744
▁가려	-10745
▁거둔	-10746
▁경북	-10747
▁공모	-10748
▁과정	-10749
▁구동	-10750
▁구슬	-10751
▁국보	-10752
▁그와	-10753
▁근무	-10754
▁기상	-10755
▁김포	-10756
▁깎아	-10757
▁꺼낼	-10758
▁끊겨	-10759
▁남게	-10760
▁내보	-10761
▁놓여	-10762
▁누적	-10763
▁담겨	-10764
▁담긴	-10765
▁당해	-10766
▁대거	-10767
▁대인	-10768
▁동굴	-10769
▁동해	-10770
▁둘러	-10771
▁드론	-10772
▁들지	-10773
▁롱잡	-10774
▁모를	-10775
▁모험	-10776
▁못할	-10777
▁무섭	-10778
▁뭉개	-10779
▁미루	-10780
▁바뀔	-10781
▁바우	-10782
▁반해	-10783
▁발행	-10784
▁배송	-10785
▁버프	-10786
▁볼트	-10787
▁분당	-10788
▁사에	-10789
▁사출	-10790
▁상술	-10791
▁상주	-10792
▁생체	-10793
▁서기	-10794
▁선더	-10795
▁세가	-10796
▁세는	-10797
▁세상	-10798
▁소위	-10799
▁수립	-10800
▁수원	-10801
▁수익	-10802
▁쉽고	-10803
▁스캔	-10804
▁습격	-10805
▁싶다	-10806
▁써야	-10807
▁아라	-10808
▁아저	-10809
▁에지	-10810
▁에티	-10811
▁연애	-10812
▁오니	-10813
▁오지	-10814
▁오직	-10815
▁위니	-10816
▁윈드	-10817
▁유형	-10818
▁이겨	-10819
▁이젠	-10820
▁자폭	-10821
▁잔잔	-10822
▁장식	-10823
▁적고	-10824
▁젊은	-10825
▁정해	-10826
▁좀더	-10827
▁주간	-10828
▁주류	-10829
▁죽기	-10830
▁지리	-10831
▁직원	-10832
▁체험	-10833
▁추격	-10834
▁축에	-10835
▁카를	-10836
▁카타	-10837
▁카피	-10838
▁캄보	-10839
▁코멘	-10840
▁코사	-10841
▁콘크	-10842
▁탱크	-10843
▁터키	-10844
▁튜토	-10845
▁패치	-10846
▁편은	-10847
▁폭사	-10848
▁피처	-10849
▁학살	-10850
▁한화	-10851
▁합계	-10852
▁헬리	-10853
▁흑역	-10854
것이다	-10855
도로가	-10856
바니아	-10857
버리고	-10858
분으로	-10859
산면을	-10860
시키면	-10861
이면서	-10862
제에서	-10863
존하는	-10864
중에는	-10865
패턴은	-10866
퍼런스	-10867
했다면	-10868
cess	-10869
echn	-10870
mare	-10871
ript	-10872
ureo	-10873
▁1-2	-10874
▁711	-10875
▁ARM	-10876
▁BMW	-10877
▁EMD	-10878
▁EOS	-10879
▁GDI	-10880
▁Hom	-10881
▁SHD	-10882
▁SPH	-10883
▁Squ	-10884
▁let	-10885
▁{{{	-10886
▁가상의	-10887
▁강하다	-10888
▁것과는	-10889
▁경기장	-10890
▁계기로	-10891
▁곡들과	-10892
▁곡이라	-10893
▁그것은	-10894
▁그러면	-10895
▁기대를	-10896
▁기술로	-10897
▁늘어난	-10898
▁단위로	-10899
▁대만의	-10900
▁돌아온	-10901
▁된다면	-10902
▁들어온	-10903
▁등장할	-10904
▁뜨거운	-10905
▁레슬링	-10906
▁로즈워	-10907
▁마법사	-10908
▁마이클	-10909
▁말레이	-10910
▁명칭과	-10911
▁명칭을	-10912
▁몰라도	-10913
▁무기의	-10914
▁바꿔서	-10915
▁받으며	-10916
▁버렸다	-10917
▁버추얼	-10918
▁상하이	-10919
▁생각을	-10920
▁선택한	-10921
▁세트인	-10922
▁수준이	-10923
▁쉽다는	-10924
▁스킬이	-10925
▁스턴을	-10926
▁스파르	-10927
▁슬로우	-10928
▁승강장	-10929
▁신나는	-10930
▁아래는	-10931
▁없으니	-10932
▁에스토	-10933
▁역사를	-10934
▁연구소	-10935
▁원곡의	-10936
▁웨이브	-10937
▁이루고	-10938
▁이룬다	-10939
▁일으키	-10940
▁장비를	-10941
▁전도를	-10942
▁제품을	-10943
▁중반에	-10944
▁중심이	-10945
▁지그재	-10946
▁지못미	-10947
▁지역의	-10948
▁창녕군	-10949
▁추측이	-10950
▁크로아	-10951
▁특성을	-10952
▁파스텔	-10953
▁포스터	-10954
▁폴아웃	-10955
▁플레임	-10956
▁하이햇	-10957
▁회사로	-10958
▁휴대폰	-10959
봤습니다	-10960
Light	-10961
ended	-10962
nicov	-10963
▁(199	-10964
▁1978	-10965
▁AirP	-10966
▁Cosm	-10967
▁GAME	-10968
▁Home	-10969
▁JTBC	-10970
▁Snow	-10971
▁간단하게	-10972
▁것이었다	-10973
▁곡이기도	-10974
▁국가등록	-10975
▁기념으로	-10976
▁나머지는	-10977
▁늘어났다	-10978
▁대부분은	-10979
▁되었다고	-10980
▁등장했기	-10981
▁분기하며	-10982
▁사거리가	-10983
▁사건으로	-10984
▁사라졌다	-10985
▁수록곡인	-10986
▁시작된다	-10987
▁않았으며	-10988
▁운영하는	-10989
▁유로비트	-10990
▁이상하게	-10991
▁인지도를	-10992
▁있었다고	-10993
▁정도이다	-10994
▁지도에만	-10995
▁지방도다	-10996
▁진행했다	-10997
▁초반부터	-10998
▁초반에는	-10999
▁캄보디아	-11000
▁튜토리얼	-11001
▁퍼포먼스	-11002
▁프로야구	-11003
▁한마디로	-11004
▁호불호가	-11005
▁히어로즈	-11006
......	-11007
iverse	-11008
street	-11009
▁Death	-11010
▁Funny	-11011
▁House	-11012
▁Micro	-11013
▁SOUND	-11014
▁Theme	-11015
▁dance	-11016
▁비슷하지만	-11017
▁시작했으며	-11018
▁유니버시아	-11019
▁인도네시아	-11020
▁인터페이스	-11021
▁추정하였다	-11022
▁Escape	-11023
▁Little	-11024
▁수록되었으며	-11025
▁nagureo	-11026
▁국가등록문화재	-11027
nicovideo	-11028
▁Commander	-11029
".	-11030
01	-11031
59	-11032
WA	-11033
YP	-11034
cc	-11035
go	-11036
ke	-11037
kr	-11038
nm	-11039
▁_	-11040
▁ا	-11041
▁끈	-11042
▁낳	-11043
▁롬	-11044
▁르	-11045
▁빡	-11046
▁섭	-11047
▁엿	-11048
▁쟁	-11049
▁줬	-11050
▁짠	-11051
▁킷	-11052
▁펀	-11053
えて	-11054
だけ	-11055
ター	-11056
ット	-11057
가야	-11058
강의	-11059
거가	-11060
경이	-11061
공사	-11062
광장	-11063
급에	-11064
기념	-11065
뉴얼	-11066
덱을	-11067
동의	-11068
란의	-11069
랐다	-11070
러를	-11071
르가	-11072
르의	-11073
마어	-11074
명에	-11075
배열	-11076
번이	-11077
볼트	-11078
사도	-11079
생활	-11080
셔널	-11081
스텀	-11082
시노	-11083
에겐	-11084
연을	-11085
왔고	-11086
용이	-11087
우치	-11088
유도	-11089
유럽	-11090
이름	-11091
이하	-11092
일과	-11093
있을	-11094
작에	-11095
져도	-11096
즈니	-11097
즈베	-11098
지리	-11099
진출	-11100
집의	-11101
쪽은	-11102
차도	-11103
처리	-11104
카를	-11105
커는	-11106
쿠리	-11107
퀘어	-11108
타니	-11109
토르	-11110
특히	-11111
패로	-11112
페라	-11113
편성	-11114
플리	-11115
하키	-11116
현면	-11117
화는	-11118
효율	-11119
히로	-11120
히면	-11121
-41	-11122
-50	-11123
ARP	-11124
ASS	-11125
Can	-11126
How	-11127
VIE	-11128
add	-11129
amn	-11130
ars	-11131
ava	-11132
bat	-11133
don	-11134
emb	-11135
idd	-11136
its	-11137
lic	-11138
och	-11139
▁-1	-11140
▁02	-11141
▁67	-11142
▁87	-11143
▁89	-11144
▁91	-11145
▁92	-11146
▁As	-11147
▁CN	-11148
▁EL	-11149
▁Mk	-11150
▁co	-11151
▁te	-11152
▁{2	-11153
▁この	-11154
▁가속	-11155
▁가위	-11156
▁감각	-11157
▁감이	-11158
▁강해	-11159
▁강호	-11160
▁개버	-11161
▁결코	-11162
▁경고	-11163
▁경부	-11164
▁고대	-11165
▁고양	-11166
▁과도	-11167
▁광탈	-11168
▁군위	-11169
▁그곳	-11170
▁그랑	-11171
▁그레	-11172
▁극복	-11173
▁급격	-11174
▁기호	-11175
▁김정	-11176
▁낙동	-11177
▁난감	-11178
▁남부	-11179
▁넘쳐	-11180
▁네코	-11181
▁노동	-11182
▁닌텐	-11183
▁다가	-11184
▁도스	-11185
▁돼서	-11186
▁룰이	-11187
▁리액	-11188
▁링고	-11189
▁막상	-11190
▁멀쩡	-11191
▁면이	-11192
▁멸망	-11193
▁명반	-11194
▁모리	-11195
▁모으	-11196
▁미완	-11197
▁바가	-11198
▁바라	-11199
▁반납	-11200
▁발발	-11201
▁배신	-11202
▁배열	-11203
▁베타	-11204
▁보게	-11205
▁보장	-11206
▁사령	-11207
▁사적	-11208
▁산하	-11209
▁섞어	-11210
▁소문	-11211
▁송현	-11212
▁숨어	-11213
▁스레	-11214
▁시각	-11215
▁시로	-11216
▁시켜	-11217
▁신용	-11218
▁실리	-11219
▁싸울	-11220
▁썬더	-11221
▁안티	-11222
▁어쩌	-11223
▁얼핏	-11224
▁없던	-11225
▁오노	-11226
▁오케	-11227
▁요격	-11228
▁요코	-11229
▁용이	-11230
▁우르	-11231
▁워크	-11232
▁원인	-11233
▁위성	-11234
▁위장	-11235
▁유크	-11236
▁윤영	-11237
▁이길	-11238
▁이영	-11239
▁일치	-11240
▁잔류	-11241
▁잡을	-11242
▁적응	-11243
▁전곡	-11244
▁전역	-11245
▁정기	-11246
▁정비	-11247
▁좋고	-11248
▁주파	-11249
▁중지	-11250
▁쪽에	-11251
▁찍고	-11252
▁창립	-11253
▁추억	-11254
▁치렀	-11255
▁치뤄	-11256
▁침공	-11257
▁카라	-11258
▁캡콤	-11259
▁콘솔	-11260
▁키리	-11261
▁키워	-11262
▁탄을	-11263
▁통화	-11264
▁패밀	-11265
▁퍼커	-11266
▁페루	-11267
▁폴리	-11268
▁피스	-11269
▁피에	-11270
▁피쳐	-11271
▁하트	-11272
▁해적	-11273
▁회상	-11274
▁후기	-11275
▁히데	-11276
구간이	-11277
네임은	-11278
니스트	-11279
데이터	-11280
도로와	-11281
리부터	-11282
리스타	-11283
리지만	-11284
메트로	-11285
번으로	-11286
부르크	-11287
부분에	-11288
부분이	-11289
어이다	-11290
어지는	-11291
였다는	-11292
우스의	-11293
인데다	-11294
초부터	-11295
판이다	-11296
/180	-11297
etch	-11298
ield	-11299
onna	-11300
ouch	-11301
ovin	-11302
razy	-11303
soft	-11304
yout	-11305
▁128	-11306
▁130	-11307
▁15.	-11308
▁815	-11309
▁BMP	-11310
▁CVN	-11311
▁DNA	-11312
▁ELL	-11313
▁EVO	-11314
▁Exp	-11315
▁God	-11316
▁Ice	-11317
▁Inv	-11318
▁Lea	-11319
▁SNS	-11320
▁STA	-11321
▁Uns	-11322
▁개최일	-11323
▁건물을	-11324
▁게이머	-11325
▁계단이	-11326
▁곡이며	-11327
▁공대공	-11328
▁규모가	-11329
▁까다로	-11330
▁나오니	-11331
▁노리는	-11332
▁노이즈	-11333
▁노트의	-11334
▁능력도	-11335
▁다루고	-11336
▁대도시	-11337
▁덧붙여	-11338
▁되기도	-11339
▁등번호	-11340
▁레벨을	-11341
▁레코드	-11342
▁맞추고	-11343
▁모자라	-11344
▁반응은	-11345
▁발표된	-11346
▁범위가	-11347
▁베이시	-11348
▁변화를	-11349
▁사항은	-11350
▁상반기	-11351
▁생각할	-11352
▁생산한	-11353
▁소식이	-11354
▁소재를	-11355
▁수록한	-11356
▁순위를	-11357
▁스크립	-11358
▁시간의	-11359
▁시점은	-11360
▁써먹을	-11361
▁아이슬	-11362
▁아키라	-11363
▁아프가	-11364
▁어우러	-11365
▁언급된	-11366
▁언커먼	-11367
▁에이지	-11368
▁여동생	-11369
▁역번호	-11370
▁영상에	-11371
▁올린다	-11372
▁위하여	-11373
▁유닛이	-11374
▁이루는	-11375
▁이름도	-11376
▁이용할	-11377
▁이유도	-11378
▁일본은	-11379
▁일부를	-11380
▁있는지	-11381
▁잠수함	-11382
▁적당히	-11383
▁제너럴	-11384
▁제목에	-11385
▁좋지만	-11386
▁지나지	-11387
▁진출한	-11388
▁차이나	-11389
▁커스텀	-11390
▁크리티	-11391
▁통과한	-11392
▁패치로	-11393
▁하늘을	-11394
▁한번도	-11395
▁한정판	-11396
▁했었다	-11397
▁홈에서	-11398
▁후반의	-11399
버전에서	-11400
anced	-11401
ingle	-11402
ndMIX	-11403
▁1976	-11404
▁1979	-11405
▁BLUE	-11406
▁DIVA	-11407
▁More	-11408
▁Roll	-11409
▁fuck	-11410
▁last	-11411
▁mind	-11412
▁take	-11413
▁walk	-11414
▁감안하면	-11415
▁그래픽을	-11416
▁그렇듯이	-11417
▁나왔는데	-11418
▁나왔지만	-11419
▁느껴지는	-11420
▁덱에서는	-11421
▁돌아온다	-11422
▁드라이브	-11423
▁떠오르는	-11424
▁레이어가	-11425
▁멜로디와	-11426
▁모드에서	-11427
▁몬스터의	-11428
▁발동하는	-11429
▁부르기도	-11430
▁사우디아	-11431
▁상대방의	-11432
▁상위호환	-11433
▁스타일로	-11434
▁스토리가	-11435
▁싫어하는	-11436
▁심지어는	-11437
▁아이스크	-11438
▁악곡이다	-11439
▁않았으나	-11440
▁알려졌다	-11441
▁어렵다는	-11442
▁영상으로	-11443
▁와타나베	-11444
▁완벽하게	-11445
▁유튜브에	-11446
▁이미지에	-11447
▁이후로도	-11448
▁익숙하지	-11449
▁입력하면	-11450
▁작곡가가	-11451
▁정상적인	-11452
▁카드들을	-11453
▁캐릭터로	-11454
▁클럽이다	-11455
▁통상해금	-11456
▁트레일러	-11457
▁펜타비전	-11458
▁평소에는	-11459
▁폭발적인	-11460
▁플라즈마	-11461
▁한국어로	-11462
▁한글로는	-11463
▁해트트릭	-11464
▁했습니다	-11465
iframe	-11466
ourney	-11467
▁Again	-11468
▁Alone	-11469
▁Dirty	-11470
▁Drive	-11471
▁Earth	-11472
▁Enter	-11473
▁Fight	-11474
▁Force	-11475
▁Space	-11476
▁TUNES	-11477
▁Under	-11478
▁간접적으로	-11479
▁강등되었다	-11480
▁개발되었다	-11481
▁게임에서는	-11482
▁모던에서는	-11483
▁버전에서는	-11484
▁승격하였다	-11485
▁에스토니아	-11486
▁일러스트는	-11487
▁최종적으로	-11488
▁충청북도의	-11489
▁캐릭터들이	-11490
▁캘리포니아	-11491
▁플레이하면	-11492
▁myself	-11493
▁시리즈에서는	-11494
▁아프가니스탄	-11495
▁Episode	-11496
▁Perfume	-11497
▁HARDCORE	-11498
(6	-11499
CW	-11500
DC	-11501
Gr	-11502
LR	-11503
MO	-11504
UH	-11505
Wh	-11506
no	-11507
oh	-11508
▁さ	-11509
▁な	-11510
▁꽂	-11511
▁똥	-11512
▁썩	-11513
▁앉	-11514
▁족	-11515
▁쪼	-11516
▁츄	-11517
▁훔	-11518
▁휠	-11519
んな	-11520
ライ	-11521
감과	-11522
개나	-11523
건을	-11524
건지	-11525
겁게	-11526
교통	-11527
금지	-11528
급이	-11529
나기	-11530
나무	-11531
놓는	-11532
대륙	-11533
라기	-11534
렛지	-11535
막이	-11536
머가	-11537
명사	-11538
모노	-11539
물에	-11540
미한	-11541
바퀴	-11542
버려	-11543
복을	-11544
비는	-11545
산이	-11546
상황	-11547
색에	-11548
서에	-11549
선에	-11550
소나	-11551
소득	-11552
소켓	-11553
쇼핑	-11554
수면	-11555
수호	-11556
쉽게	-11557
시인	-11558
실에	-11559
실의	-11560
아트	-11561
안이	-11562
암로	-11563
여도	-11564
요시	-11565
월호	-11566
웠던	-11567
음과	-11568
의도	-11569
자리	-11570
자연	-11571
졌던	-11572
창읍	-11573
초가	-11574
추는	-11575
커로	-11576
크루	-11577
탄두	-11578
탄이	-11579
터로	-11580
파일	-11581
포드	-11582
포에	-11583
프라	-11584
혀서	-11585
훈이	-11586
-11	-11587
-18	-11588
.22	-11589
/12	-11590
/15	-11591
/25	-11592
/50	-11593
OSH	-11594
OUR	-11595
Rev	-11596
aos	-11597
cer	-11598
ene	-11599
eng	-11600
iff	-11601
ini	-11602
iny	-11603
oad	-11604
ori	-11605
otP	-11606
oup	-11607
uke	-11608
▁71	-11609
▁9,	-11610
▁Bo	-11611
▁FT	-11612
▁du	-11613
▁en	-11614
▁가히	-11615
▁간주	-11616
▁것일	-11617
▁고유	-11618
▁곳을	-11619
▁괴담	-11620
▁구곡	-11621
▁구별	-11622
▁권한	-11623
▁궤도	-11624
▁그외	-11625
▁그후	-11626
▁극악	-11627
▁길고	-11628
▁끔찍	-11629
▁나지	-11630
▁날뛰	-11631
▁남해	-11632
▁내서	-11633
▁내주	-11634
▁노바	-11635
▁농담	-11636
▁높게	-11637
▁니트	-11638
▁대관	-11639
▁동부	-11640
▁동아	-11641
▁동의	-11642
▁동체	-11643
▁되자	-11644
▁두근	-11645
▁듣는	-11646
▁따지	-11647
▁마다	-11648
▁망상	-11649
▁매각	-11650
▁메시	-11651
▁명확	-11652
▁모에	-11653
▁몽환	-11654
▁무렵	-11655
▁무비	-11656
▁발달	-11657
▁방에	-11658
▁방콕	-11659
▁배터	-11660
▁베를	-11661
▁본사	-11662
▁봉쇄	-11663
▁분쟁	-11664
▁비판	-11665
▁삼척	-11666
▁상륙	-11667
▁상호	-11668
▁서면	-11669
▁서정	-11670
▁선배	-11671
▁설득	-11672
▁소닉	-11673
▁속주	-11674
▁속편	-11675
▁속한	-11676
▁스톤	-11677
▁신흥	-11678
▁실현	-11679
▁심리	-11680
▁썼던	-11681
▁엑셀	-11682
▁엔젤	-11683
▁여수	-11684
▁영구	-11685
▁오류	-11686
▁오를	-11687
▁왕국	-11688
▁요약	-11689
▁이긴	-11690
▁인조	-11691
▁읽어	-11692
▁저녁	-11693
▁전망	-11694
▁주행	-11695
▁즐거	-11696
▁지은	-11697
▁차별	-11698
▁초록	-11699
▁초월	-11700
▁초회	-11701
▁총을	-11702
▁최저	-11703
▁치루	-11704
▁커피	-11705
▁크립	-11706
▁타지	-11707
▁탐색	-11708
▁통영	-11709
▁특집	-11710
▁파는	-11711
▁펑크	-11712
▁풀어	-11713
▁하급	-11714
▁했을	-11715
▁향후	-11716
▁허락	-11717
▁화학	-11718
▁환상	-11719
▁후인	-11720
▁후일	-11721
거리를	-11722
경기는	-11723
고양이	-11724
기까지	-11725
나가는	-11726
네이션	-11727
는다고	-11728
당하는	-11729
된다는	-11730
등학생	-11731
라이어	-11732
레벨을	-11733
리거나	-11734
린다는	-11735
바위보	-11736
바키아	-11737
버리면	-11738
이치로	-11739
저수지	-11740
졌는데	-11741
타이어	-11742
플라이	-11743
회의원	-11744
born	-11745
inum	-11746
ival	-11747
▁101	-11748
▁112	-11749
▁15%	-11750
▁Cup	-11751
▁Die	-11752
▁ERL	-11753
▁Fre	-11754
▁Jim	-11755
▁KOF	-11756
▁Luv	-11757
▁Mat	-11758
▁May	-11759
▁She	-11760
▁how	-11761
▁int	-11762
▁가능해	-11763
▁가치가	-11764
▁거기서	-11765
▁것들이	-11766
▁것인지	-11767
▁경우에	-11768
▁구하기	-11769
▁그들은	-11770
▁그들이	-11771
▁기술의	-11772
▁기업의	-11773
▁기체가	-11774
▁기체로	-11775
▁기타를	-11776
▁나나세	-11777
▁나란히	-11778
▁느껴질	-11779
▁다큐멘	-11780
▁달린다	-11781
▁담당한	-11782
▁대규모	-11783
▁도입된	-11784
▁동방신	-11785
▁두려워	-11786
▁디바이	-11787
▁많으며	-11788
▁말해서	-11789
▁먹으면	-11790
▁멤버로	-11791
▁명중률	-11792
▁무대를	-11793
▁문자열	-11794
▁물건이	-11795
▁물고기	-11796
▁미션이	-11797
▁미소녀	-11798
▁밴드를	-11799
▁별개로	-11800
▁보면의	-11801
▁봉화군	-11802
▁부활한	-11803
▁브라켓	-11804
▁비스턴	-11805
▁생긴다	-11806
▁선생님	-11807
▁선수권	-11808
▁성격이	-11809
▁성향이	-11810
▁세계에	-11811
▁소련군	-11812
▁소설가	-11813
▁수송기	-11814
▁수요가	-11815
▁스즈키	-11816
▁승부조	-11817
▁실렸다	-11818
▁싱글의	-11819
▁아이캐	-11820
▁악명이	-11821
▁어딘가	-11822
▁어마어	-11823
▁억지로	-11824
▁없었기	-11825
▁에리어	-11826
▁엔진이	-11827
▁올렸다	-11828
▁완전한	-11829
▁우승자	-11830
▁우승한	-11831
▁원핸드	-11832
▁이렇다	-11833
▁이로써	-11834
▁이름만	-11835
▁이펙트	-11836
▁인간이	-11837
▁인스턴	-11838
▁자켓은	-11839
▁작품에	-11840
▁장르가	-11841
▁재밌는	-11842
▁전작에	-11843
▁전투에	-11844
▁정도는	-11845
▁제국의	-11846
▁주문이	-11847
▁죽음의	-11848
▁지나고	-11849
▁지난다	-11850
▁차량이	-11851
▁차이를	-11852
▁찾아볼	-11853
▁처리할	-11854
▁출연한	-11855
▁커맨드	-11856
▁컴퍼니	-11857
▁타입의	-11858
▁태어난	-11859
▁탭소닉	-11860
▁트리플	-11861
▁페어리	-11862
▁플래시	-11863
▁허리틀	-11864
▁형식의	-11865
▁형태가	-11866
스에서는	-11867
어버리는	-11868
촌리에서	-11869
해서인지	-11870
anger	-11871
ottle	-11872
ports	-11873
rodin	-11874
▁1136	-11875
▁12.7	-11876
▁1950	-11877
▁CORE	-11878
▁DOLL	-11879
▁DotP	-11880
▁Mist	-11881
▁STAR	-11882
▁Serv	-11883
▁What	-11884
▁fall	-11885
▁here	-11886
▁long	-11887
▁name	-11888
▁강원도의	-11889
▁나타나는	-11890
▁등장했던	-11891
▁만들어낸	-11892
▁망했어요	-11893
▁몬스터가	-11894
▁물론이고	-11895
▁미니앨범	-11896
▁발매했다	-11897
▁북쪽으로	-11898
▁상관없이	-11899
▁선수들은	-11900
▁스턴캐릭	-11901
▁시전시간	-11902
▁아쉽게도	-11903
▁앨범에는	-11904
▁예선에서	-11905
▁예전에는	-11906
▁왜냐하면	-11907
▁운용하는	-11908
▁이런저런	-11909
▁이용하면	-11910
▁인수하여	-11911
▁일어나는	-11912
▁존재했던	-11913
▁주어졌다	-11914
▁크리스탈	-11915
▁크리티컬	-11916
▁탑재하고	-11917
▁하위타입	-11918
▁해금되는	-11919
▁환경에서	-11920
라운드에서	-11921
▁Games	-11922
▁Japan	-11923
▁MOVIE	-11924
▁There	-11925
▁그라디우스	-11926
▁디스플레이	-11927
▁마법물체를	-11928
▁매카트니가	-11929
▁변경하였다	-11930
▁보여주었다	-11931
▁업데이트가	-11932
▁인스브루크	-11933
▁크리스마스	-11934
▁프로레슬링	-11935
▁하이브리드	-11936
▁한국에서도	-11937
▁확인되었다	-11938
youtube	-11939
▁Liquid	-11940
▁Master	-11941
▁대한민국에서	-11942
▁스테이지에서	-11943
▁2013-14	-11944
▁Digital	-11945
▁Audition	-11946
▁Nightmare	-11947
+2	-11948
BA	-11949
GM	-11950
HP	-11951
IF	-11952
My	-11953
OH	-11954
Sc	-11955
ae	-11956
dy	-11957
eh	-11958
hh	-11959
la	-11960
py	-11961
za	-11962
▁꽉	-11963
▁놔	-11964
▁뚜	-11965
▁맑	-11966
▁며	-11967
▁삶	-11968
▁썰	-11969
▁탁	-11970
まで	-11971
ック	-11972
경우	-11973
곡과	-11974
골이	-11975
관광	-11976
국은	-11977
권은	-11978
기구	-11979
기기	-11980
냄새	-11981
도리	-11982
됐던	-11983
두는	-11984
라시	-11985
랄까	-11986
례로	-11987
루를	-11988
리바	-11989
릴라	-11990
마로	-11991
먹기	-11992
메다	-11993
목록	-11994
물관	-11995
미니	-11996
받지	-11997
백을	-11998
병의	-11999
병이	-12000
보이	-12001
봐도	-12002
부키	-12003
블릿	-12004
사스	-12005
상승	-12006
생물	-12007
석을	-12008
선생	-12009
수리	-12010
스파	-12011
슬로	-12012
신에	-12013
싱글	-12014
아닌	-12015
양을	-12016
업이	-12017
에이	-12018
연속	-12019
열차	-12020
왕국	-12021
우를	-12022
우지	-12023
이랑	-12024
일때	-12025
입어	-12026
재가	-12027
저격	-12028
절한	-12029
주자	-12030
즈로	-12031
지나	-12032
지다	-12033
츠의	-12034
카운	-12035
코와	-12036
쿠가	-12037
클리	-12038
킹이	-12039
테르	-12040
토를	-12041
팅을	-12042
패가	-12043
퍼스	-12044
페르	-12045
평가	-12046
평읍	-12047
포면	-12048
형에	-12049
히기	-12050
(..	-12051
-30	-12052
AKE	-12053
AMI	-12054
ANG	-12055
ASE	-12056
DVD	-12057
IRE	-12058
UKE	-12059
URE	-12060
awa	-12061
azz	-12062
emo	-12063
ets	-12064
ica	-12065
ler	-12066
oci	-12067
oly	-12068
the	-12069
ude	-12070
ues	-12071
▁63	-12072
▁72	-12073
▁84	-12074
▁LA	-12075
▁MR	-12076
▁NX	-12077
▁RW	-12078
▁Su	-12079
▁TE	-12080
▁ac	-12081
▁ed	-12082
▁km	-12083
▁가공	-12084
▁가드	-12085
▁가이	-12086
▁각자	-12087
▁갈색	-12088
▁갑작	-12089
▁개시	-12090
▁개정	-12091
▁거다	-12092
▁거절	-12093
▁건반	-12094
▁게이	-12095
▁격투	-12096
▁결론	-12097
▁겹쳐	-12098
▁고를	-12099
▁공부	-12100
▁구출	-12101
▁군수	-12102
▁권장	-12103
▁그건	-12104
▁극초	-12105
▁금산	-12106
▁기권	-12107
▁길게	-12108
▁끝났	-12109
▁끼워	-12110
▁나갔	-12111
▁내기	-12112
▁네팔	-12113
▁넥슨	-12114
▁노란	-12115
▁노부	-12116
▁담아	-12117
▁대립	-12118
▁대야	-12119
▁대칭	-12120
▁독점	-12121
▁돈법	-12122
▁동봉	-12123
▁동작	-12124
▁동호	-12125
▁두번	-12126
▁둘째	-12127
▁등극	-12128
▁뚫고	-12129
▁뜬다	-12130
▁로스	-12131
▁루나	-12132
▁리치	-12133
▁마케	-12134
▁만남	-12135
▁망가	-12136
▁맞이	-12137
▁매주	-12138
▁묶어	-12139
▁민수	-12140
▁밑에	-12141
▁박지	-12142
▁반란	-12143
▁배수	-12144
▁벨트	-12145
▁부모	-12146
▁분은	-12147
▁비기	-12148
▁비스	-12149
▁사전	-12150
▁살펴	-12151
▁삼각	-12152
▁색의	-12153
▁서킷	-12154
▁성별	-12155
▁세운	-12156
▁셀러	-12157
▁셔틀	-12158
▁소방	-12159
▁수동	-12160
▁수로	-12161
▁순환	-12162
▁신고	-12163
▁신비	-12164
▁신지	-12165
▁실망	-12166
▁실용	-12167
▁심해	-12168
▁싱크	-12169
▁싶을	-12170
▁쓸데	-12171
▁안나	-12172
▁에르	-12173
▁엔지	-12174
▁역은	-12175
▁예능	-12176
▁오카	-12177
▁와이	-12178
▁유혹	-12179
▁이듬	-12180
▁이마	-12181
▁이종	-12182
▁이쿠	-12183
▁자책	-12184
▁장교	-12185
▁재능	-12186
▁저가	-12187
▁전해	-12188
▁제휴	-12189
▁죽는	-12190
▁체중	-12191
▁축소	-12192
▁출입	-12193
▁치기	-12194
▁침몰	-12195
▁카와	-12196
▁콜롬	-12197
▁쿼터	-12198
▁타겟	-12199
▁타츠	-12200
▁테라	-12201
▁파견	-12202
▁패션	-12203
▁폐막	-12204
▁포드	-12205
▁표방	-12206
▁풋볼	-12207
▁플랜	-12208
▁피버	-12209
▁할당	-12210
▁합금	-12211
▁허용	-12212
▁현행	-12213
▁화살	-12214
▁흔한	-12215
국으로	-12216
그대로	-12217
기관총	-12218
년동안	-12219
등으로	-12220
레벨의	-12221
레스를	-12222
렸는데	-12223
로서는	-12224
만하다	-12225
방에서	-12226
범위에	-12227
에리온	-12228
였기에	-12229
였다가	-12230
이라기	-12231
중에서	-12232
팀으로	-12233
페스트	-12234
편이다	-12235
풍으로	-12236
하세요	-12237
함으로	-12238
형이다	-12239
.8.2	-12240
FIFA	-12241
Hack	-12242
MALL	-12243
beat	-12244
html	-12245
leep	-12246
unes	-12247
▁(20	-12248
▁175	-12249
▁3.5	-12250
▁588	-12251
▁723	-12252
▁730	-12253
▁909	-12254
▁ASL	-12255
▁Cal	-12256
▁IPX	-12257
▁ISO	-12258
▁MTG	-12259
▁PSP	-12260
▁Sch	-12261
▁Sil	-12262
▁Val	-12263
▁あなた	-12264
▁갈리는	-12265
▁개막전	-12266
▁거리를	-12267
▁걸맞게	-12268
▁것인데	-12269
▁고스트	-12270
▁국가의	-12271
▁국도는	-12272
▁그러한	-12273
▁기회를	-12274
▁꼽힌다	-12275
▁나뉘어	-12276
▁나이지	-12277
▁낮지만	-12278
▁내부에	-12279
▁내용의	-12280
▁넥서스	-12281
▁노트로	-12282
▁느끼는	-12283
▁다리를	-12284
▁대다수	-12285
▁대미지	-12286
▁대사를	-12287
▁도로명	-12288
▁되돌아	-12289
▁디비전	-12290
▁레벨당	-12291
▁레이버	-12292
▁리그를	-12293
▁매니아	-12294
▁머리를	-12295
▁메들리	-12296
▁명령을	-12297
▁묘하게	-12298
▁무력화	-12299
▁미국을	-12300
▁미국인	-12301
▁밖으로	-12302
▁배경이	-12303
▁배우는	-12304
▁베를린	-12305
▁변속이	-12306
▁보유한	-12307
▁부르고	-12308
▁북한에	-12309
▁붙었다	-12310
▁붙여서	-12311
▁사망한	-12312
▁상당수	-12313
▁선발에	-12314
▁설명은	-12315
▁설치된	-12316
▁성공을	-12317
▁세컨드	-12318
▁센트럴	-12319
▁셈이다	-12320
▁소재가	-12321
▁속도는	-12322
▁손쉽게	-12323
▁송현덕	-12324
▁스크린	-12325
▁스킬의	-12326
▁스태프	-12327
▁승부차	-12328
▁시대의	-12329
▁쌍둥이	-12330
▁악명높	-12331
▁알렉스	-12332
▁어원은	-12333
▁어펜드	-12334
▁얼굴이	-12335
▁없어진	-12336
▁에볼라	-12337
▁올스타	-12338
▁유니온	-12339
▁유닛을	-12340
▁유지단	-12341
▁유형이	-12342
▁의령군	-12343
▁이름에	-12344
▁인기곡	-12345
▁일단은	-12346
▁자리에	-12347
▁장면을	-12348
▁전부터	-12349
▁전작인	-12350
▁정도면	-12351
▁정발시	-12352
▁정배치	-12353
▁제작에	-12354
▁조금만	-12355
▁즐기는	-12356
▁진출자	-12357
▁진행된	-12358
▁참가할	-12359
▁최소한	-12360
▁클라이	-12361
▁탑재된	-12362
▁태블릿	-12363
▁테마로	-12364
▁테크닉	-12365
▁투어를	-12366
▁편인데	-12367
▁포장이	-12368
▁포켓몬	-12369
▁포항시	-12370
▁폭격기	-12371
▁표기는	-12372
▁한가지	-12373
▁항공기	-12374
▁확장팩	-12375
▁흉악한	-12376
▁흘러나	-12377
국제공항	-12378
권에서는	-12379
년까지는	-12380
동리에서	-12381
black	-12382
marju	-12383
ummer	-12384
▁BOSS	-12385
▁Burn	-12386
▁Drum	-12387
▁Euro	-12388
▁Eyes	-12389
▁Look	-12390
▁Lost	-12391
▁Tone	-12392
▁VERS	-12393
▁Weap	-12394
▁YOSH	-12395
▁body	-12396
▁cont	-12397
▁검색하면	-12398
▁과거에는	-12399
▁내용으로	-12400
▁돌아왔다	-12401
▁되었지만	-12402
▁들어가게	-12403
▁메탈기어	-12404
▁모델이다	-12405
▁미사일은	-12406
▁분위기로	-12407
▁사용자는	-12408
▁사족으로	-12409
▁상황이다	-12410
▁생명점을	-12411
▁서비스가	-12412
▁세계관을	-12413
▁시작되어	-12414
▁싱글이다	-12415
▁쓰이기도	-12416
▁아니라고	-12417
▁않는다고	-12418
▁앨범에서	-12419
▁영상에서	-12420
▁올림픽을	-12421
▁유지하고	-12422
▁작품에서	-12423
▁장착하고	-12424
▁전쟁에서	-12425
▁정리하는	-12426
▁존재하며	-12427
▁중요하다	-12428
▁챌린지컵	-12429
▁처리하기	-12430
▁추가되어	-12431
▁콘크리트	-12432
▁클리어가	-12433
▁한글판이	-12434
▁후속작인	-12435
되었습니다	-12436
asting	-12437
▁BREAK	-12438
▁Coast	-12439
▁Dynam	-12440
▁Party	-12441
▁break	-12442
▁기준으로는	-12443
▁대회에서는	-12444
▁말레이시아	-12445
▁발표되었다	-12446
▁사용하였다	-12447
▁생산되었다	-12448
▁스테이지를	-12449
▁오리지널곡	-12450
▁익스텐디드	-12451
▁참여하였다	-12452
▁토너먼트에	-12453
▁튀어나오는	-12454
▁트랜스포머	-12455
▁프로게이머	-12456
▁프로그램인	-12457
▁허리케인저	-12458
▁홈페이지에	-12459
▁확정되었다	-12460
▁(2010)	-12461
▁Christ	-12462
▁Depend	-12463
▁Double	-12464
▁Secret	-12465
▁people	-12466
▁부탁드립니다	-12467
▁수도고속도로	-12468
▁오프라인으로	-12469
▁키보드매니아	-12470
▁Century	-12471
▁Destiny	-12472
▁Tonight	-12473
▁사우디아라비아	-12474
▁Mirrodin	-12475
▁Platinum	-12476
▁서해안고속도로와	-12477
Revolution	-12478
▁Microsoft	-12479
▁Collection	-12480
2/	-12481
58	-12482
DN	-12483
DP	-12484
FL	-12485
Gu	-12486
LS	-12487
SH	-12488
rc	-12489
▁z	-12490
▁ど	-12491
▁一	-12492
▁닭	-12493
▁붐	-12494
▁뼈	-12495
▁싼	-12496
▁얇	-12497
▁컸	-12498
▁펫	-12499
▁폼	-12500
くて	-12501
こと	-12502
건이	-12503
경제	-12504
계리	-12505
고생	-12506
관의	-12507
규어	-12508
노는	-12509
놨다	-12510
단어	-12511
달아	-12512
대체	-12513
더가	-12514
동에	-12515
들인	-12516
러리	-12517
마냥	-12518
마치	-12519
막한	-12520
미아	-12521
미컴	-12522
바르	-12523
배로	-12524
배우	-12525
버젼	-12526
법은	-12527
병을	-12528
본을	-12529
봉로	-12530
사리	-12531
사정	-12532
서도	-12533
세에	-12534
수학	-12535
시장	-12536
신과	-12537
실한	-12538
안의	-12539
액을	-12540
었어	-12541
연이	-12542
올린	-12543
용의	-12544
우로	-12545
운의	-12546
일드	-12547
저것	-12548
적은	-12549
전철	-12550
정부	-12551
졌을	-12552
족의	-12553
진은	-12554
차게	-12555
천사	-12556
초로	-12557
층에	-12558
코노	-12559
코딩	-12560
타는	-12561
프론	-12562
하곤	-12563
한정	-12564
-22	-12565
-35	-12566
800	-12567
IND	-12568
OMI	-12569
Pro	-12570
STL	-12571
gen	-12572
hed	-12573
ins	-12574
ira	-12575
min	-12576
odd	-12577
php	-12578
por	-12579
uly	-12580
urr	-12581
ves	-12582
▁62	-12583
▁73	-12584
▁93	-12585
▁</	-12586
▁Fu	-12587
▁HK	-12588
▁Pa	-12589
▁TR	-12590
▁WH	-12591
▁XM	-12592
▁qu	-12593
▁가라	-12594
▁각성	-12595
▁갈라	-12596
▁감시	-12597
▁강릉	-12598
▁개수	-12599
▁개화	-12600
▁거시	-12601
▁건드	-12602
▁격하	-12603
▁경주	-12604
▁고작	-12605
▁괴롭	-12606
▁국적	-12607
▁궁금	-12608
▁극한	-12609
▁길다	-12610
▁김대	-12611
▁김해	-12612
▁끝을	-12613
▁나치	-12614
▁내지	-12615
▁네티	-12616
▁노릴	-12617
▁당한	-12618
▁더비	-12619
▁더빙	-12620
▁덱은	-12621
▁동구	-12622
▁동네	-12623
▁동쪽	-12624
▁드로	-12625
▁드문	-12626
▁따닥	-12627
▁따왔	-12628
▁라스	-12629
▁레알	-12630
▁로딩	-12631
▁마하	-12632
▁맛이	-12633
▁맞은	-12634
▁맥시	-12635
▁머물	-12636
▁모음	-12637
▁모인	-12638
▁무산	-12639
▁문단	-12640
▁문학	-12641
▁바깥	-12642
▁발간	-12643
▁발굴	-12644
▁방공	-12645
▁배출	-12646
▁법한	-12647
▁베가	-12648
▁변종	-12649
▁보도	-12650
▁북면	-12651
▁브릿	-12652
▁살고	-12653
▁상의	-12654
▁섞은	-12655
▁선물	-12656
▁셀렉	-12657
▁수소	-12658
▁순천	-12659
▁슬롯	-12660
▁실버	-12661
▁실수	-12662
▁실은	-12663
▁심볼	-12664
▁심히	-12665
▁싸이	-12666
▁쓰던	-12667
▁아나	-12668
▁악성	-12669
▁안젤	-12670
▁안토	-12671
▁앤드	-12672
▁어뢰	-12673
▁어설	-12674
▁연간	-12675
▁연락	-12676
▁연산	-12677
▁오라	-12678
▁운반	-12679
▁월간	-12680
▁월등	-12681
▁위와	-12682
▁유이	-12683
▁유토	-12684
▁음성	-12685
▁이브	-12686
▁이윤	-12687
▁인용	-12688
▁입힙	-12689
▁자아	-12690
▁자전	-12691
▁잘만	-12692
▁재팬	-12693
▁저글	-12694
▁적재	-12695
▁전무	-12696
▁점과	-12697
▁정통	-12698
▁제곱	-12699
▁제온	-12700
▁종교	-12701
▁종전	-12702
▁좋게	-12703
▁주무	-12704
▁주식	-12705
▁중구	-12706
▁증강	-12707
▁증명	-12708
▁지경	-12709
▁지루	-12710
▁직통	-12711
▁짐작	-12712
▁짧게	-12713
▁창작	-12714
▁츠카	-12715
▁콘셉	-12716
▁큐슈	-12717
▁퇴사	-12718
▁퇴장	-12719
▁팬덤	-12720
▁편한	-12721
▁프랜	-12722
▁플루	-12723
▁피겨	-12724
▁한명	-12725
▁할인	-12726
▁항속	-12727
▁해산	-12728
▁해킹	-12729
▁했기	-12730
▁허나	-12731
▁현장	-12732
▁호세	-12733
▁황제	-12734
▁후손	-12735
▁흰색	-12736
그룹의	-12737
능력은	-12738
더스트	-12739
도로로	-12740
됐으며	-12741
레벨에	-12742
레이트	-12743
렸으며	-12744
미디어	-12745
승으로	-12746
에게만	-12747
에너지	-12748
에서나	-12749
으려고	-12750
읍에서	-12751
이거나	-12752
져있다	-12753
차이즈	-12754
편에서	-12755
해지고	-12756
-130	-12757
/115	-12758
/125	-12759
OTTO	-12760
USIC	-12761
eace	-12762
esis	-12763
hone	-12764
icle	-12765
line	-12766
news	-12767
oice	-12768
rica	-12769
tack	-12770
▁1.2	-12771
▁105	-12772
▁140	-12773
▁2/2	-12774
▁3/3	-12775
▁405	-12776
▁AGM	-12777
▁ARE	-12778
▁BBC	-12779
▁DNS	-12780
▁Dem	-12781
▁ECW	-12782
▁ETB	-12783
▁GRA	-12784
▁How	-12785
▁LGA	-12786
▁LTE	-12787
▁Lon	-12788
▁Mom	-12789
▁Tim	-12790
▁end	-12791
▁강철의	-12792
▁같은데	-12793
▁개머리	-12794
▁것이기	-12795
▁결성된	-12796
▁곡명은	-12797
▁곳이다	-12798
▁공사를	-12799
▁공포의	-12800
▁관람객	-12801
▁광고를	-12802
▁교차로	-12803
▁구성은	-12804
▁국내에	-12805
▁그대와	-12806
▁그렇듯	-12807
▁그루브	-12808
▁극도로	-12809
▁기능은	-12810
▁기본판	-12811
▁김제시	-12812
▁나타난	-12813
▁노래로	-12814
▁느끼고	-12815
▁다른데	-12816
▁달성한	-12817
▁대상의	-12818
▁도입한	-12819
▁도전과	-12820
▁됩니다	-12821
▁드물게	-12822
▁등장해	-12823
▁라틴어	-12824
▁레벨에	-12825
▁루트를	-12826
▁리그의	-12827
▁리듬을	-12828
▁말장난	-12829
▁말했다	-12830
▁맞으면	-12831
▁모니터	-12832
▁무기는	-12833
▁무리가	-12834
▁무사히	-12835
▁문서는	-12836
▁문제의	-12837
▁미드필	-12838
▁민간인	-12839
▁바뀌고	-12840
▁바라보	-12841
▁버그가	-12842
▁버리는	-12843
▁번호를	-12844
▁범위에	-12845
▁보급형	-12846
▁보내는	-12847
▁본작의	-12848
▁부품을	-12849
▁북한의	-12850
▁불리며	-12851
▁비교해	-12852
▁비롯해	-12853
▁사고가	-12854
▁선수를	-12855
▁세상을	-12856
▁세이브	-12857
▁순양전	-12858
▁스퀘어	-12859
▁실험을	-12860
▁쓰레기	-12861
▁아무튼	-12862
▁알파벳	-12863
▁여기는	-12864
▁연출이	-12865
▁영주시	-12866
▁워게임	-12867
▁원곡이	-12868
▁음반을	-12869
▁음악과	-12870
▁음악에	-12871
▁음악적	-12872
▁이기고	-12873
▁이듬해	-12874
▁이외에	-12875
▁일본군	-12876
▁작가의	-12877
▁작업한	-12878
▁전설이	-12879
▁전원이	-12880
▁전쟁의	-12881
▁전투함	-12882
▁점수가	-12883
▁정체를	-12884
▁죽는다	-12885
▁중국어	-12886
▁지속물	-12887
▁지정된	-12888
▁차이는	-12889
▁처음엔	-12890
▁최근에	-12891
▁추가한	-12892
▁카오스	-12893
▁컨셉을	-12894
▁코로나	-12895
▁크기가	-12896
▁탑랭커	-12897
▁특징인	-12898
▁퍼커션	-12899
▁표기가	-12900
▁표기된	-12901
▁표현을	-12902
▁표현한	-12903
▁프리즘	-12904
▁하드는	-12905
▁하반기	-12906
▁하이라	-12907
▁헬리콥	-12908
▁확정지	-12909
▁흡혈귀	-12910
▁희대의	-12911
▁히로인	-12912
부리그로	-12913
선승제로	-12914
성리에서	-12915
으면서도	-12916
이었다는	-12917
자들에게	-12918
하였지만	-12919
하자마자	-12920
화되었다	-12921
.....	-12922
Dance	-12923
Radio	-12924
astic	-12925
irect	-12926
thMIX	-12927
▁1965	-12928
▁4000	-12929
▁CAWS	-12930
▁EXIT	-12931
▁GSTL	-12932
▁Have	-12933
▁King	-12934
▁TUNE	-12935
▁Term	-12936
▁step	-12937
▁wind	-12938
▁광주대구	-12939
▁깔끔하게	-12940
▁나온다는	-12941
▁나카무라	-12942
▁담당했다	-12943
▁등장하고	-12944
▁등장하여	-12945
▁디자인은	-12946
▁따라서는	-12947
▁메인보드	-12948
▁미션에서	-12949
▁보여줬다	-12950
▁사용자가	-12951
▁설치되어	-12952
▁스타디움	-12953
▁아메리카	-12954
▁아이러니	-12955
▁않는다면	-12956
▁어지간한	-12957
▁연주하는	-12958
▁유닛으로	-12959
▁일본군이	-12960
▁일본어로	-12961
▁입힙니다	-12962
▁정도였다	-12963
▁지칭하는	-12964
▁차지하며	-12965
▁컴퓨터를	-12966
▁퀄리티를	-12967
▁크레이지	-12968
▁하필이면	-12969
수록되었다	-12970
action	-12971
gether	-12972
▁(2008	-12973
▁Blade	-12974
▁Etern	-12975
▁https	-12976
▁right	-12977
▁still	-12978
▁wanna	-12979
▁가위바위보	-12980
▁대체적으로	-12981
▁만들었다고	-12982
▁베이시스트	-12983
▁보았습니다	-12984
▁사이에서는	-12985
▁수록되었던	-12986
▁스테이지로	-12987
▁아이스하키	-12988
▁아쿠에리온	-12989
▁어마어마한	-12990
▁작중에서는	-12991
▁재발매되기	-12992
▁지속적으로	-12993
▁책정되었다	-12994
▁크로아티아	-12995
▁테러리스트	-12996
▁하이라이트	-12997
엔터테인먼트	-12998
Fantasy	-12999
▁(2012)	-13000
▁Around	-13001
▁Guitar	-13002
▁Season	-13003
▁오스트리아의	-13004
▁유니버시아드	-13005
▁프로그램으로	-13006
▁프로그램이다	-13007
▁Endless	-13008
▁Forever	-13009
▁alright	-13010
,#	-13011
07	-13012
69	-13013
An	-13014
CC	-13015
DK	-13016
IV	-13017
KY	-13018
TT	-13019
UG	-13020
UZ	-13021
de	-13022
ih	-13023
vy	-13024
wn	-13025
ze	-13026
▁?	-13027
▁お	-13028
▁愛	-13029
▁땄	-13030
▁띠	-13031
▁뻗	-13032
▁뿜	-13033
▁쏠	-13034
▁촌	-13035
▁텀	-13036
▁혐	-13037
しき	-13038
たい	-13039
ちゃ	-13040
ゅう	-13041
ジャ	-13042
ディ	-13043
가며	-13044
강이	-13045
건조	-13046
골로	-13047
교차	-13048
그가	-13049
급을	-13050
년엔	-13051
노브	-13052
누엘	-13053
닌다	-13054
다의	-13055
당의	-13056
돌이	-13057
되다	-13058
란다	-13059
람회	-13060
량면	-13061
률로	-13062
무가	-13063
문로	-13064
문서	-13065
반짝	-13066
방어	-13067
배속	-13068
보병	-13069
브리	-13070
산역	-13071
살인	-13072
생명	-13073
서울	-13074
소로	-13075
소스	-13076
스런	-13077
슨이	-13078
시안	-13079
실상	-13080
에미	-13081
엣지	-13082
연맹	-13083
연한	-13084
염을	-13085
영문	-13086
오스	-13087
외선	-13088
용을	-13089
울한	-13090
원인	-13091
율은	-13092
이닝	-13093
일관	-13094
입구	-13095
입성	-13096
자카	-13097
즈카	-13098
진로	-13099
질로	-13100
채로	-13101
초후	-13102
츠를	-13103
카에	-13104
콘서	-13105
타이	-13106
투자	-13107
포항	-13108
폭격	-13109
폰을	-13110
피트	-13111
하러	-13112
현로	-13113
현재	-13114
혹은	-13115
환경	-13116
-91	-13117
/16	-13118
57-	-13119
:00	-13120
CAC	-13121
CDL	-13122
ESA	-13123
SLR	-13124
You	-13125
aki	-13126
ami	-13127
anz	-13128
erk	-13129
ico	-13130
imo	-13131
ken	-13132
ral	-13133
umi	-13134
web	-13135
▁0.	-13136
▁54	-13137
▁76	-13138
▁Ak	-13139
▁Du	-13140
▁FN	-13141
▁IV	-13142
▁em	-13143
▁가나	-13144
▁간부	-13145
▁갔다	-13146
▁개가	-13147
▁개별	-13148
▁거론	-13149
▁걸즈	-13150
▁경향	-13151
▁경호	-13152
▁고우	-13153
▁고향	-13154
▁공익	-13155
▁관측	-13156
▁구불	-13157
▁군용	-13158
▁금강	-13159
▁기밀	-13160
▁긴장	-13161
▁꼴찌	-13162
▁나츠	-13163
▁난무	-13164
▁남쪽	-13165
▁낫다	-13166
▁낸다	-13167
▁늘려	-13168
▁대화	-13169
▁도메	-13170
▁동면	-13171
▁되살	-13172
▁듀엣	-13173
▁들여	-13174
▁등도	-13175
▁디렉	-13176
▁렌즈	-13177
▁루비	-13178
▁맞붙	-13179
▁맞서	-13180
▁매체	-13181
▁모른	-13182
▁모은	-13183
▁몹시	-13184
▁무역	-13185
▁문의	-13186
▁문화	-13187
▁물려	-13188
▁바렛	-13189
▁바운	-13190
▁배속	-13191
▁백운	-13192
▁베레	-13193
▁변칙	-13194
▁본명	-13195
▁사살	-13196
▁사야	-13197
▁사천	-13198
▁상세	-13199
▁상자	-13200
▁새턴	-13201
▁생략	-13202
▁서구	-13203
▁설이	-13204
▁섬광	-13205
▁소타	-13206
▁솔직	-13207
▁쇼트	-13208
▁수련	-13209
▁수백	-13210
▁스틸	-13211
▁시달	-13212
▁시카	-13213
▁시크	-13214
▁시킨	-13215
▁신체	-13216
▁쏘는	-13217
▁아인	-13218
▁야간	-13219
▁어떨	-13220
▁억제	-13221
▁업계	-13222
▁에드	-13223
▁에반	-13224
▁여럿	-13225
▁연말	-13226
▁영월	-13227
▁영춘	-13228
▁예시	-13229
▁올해	-13230
▁우라	-13231
▁유력	-13232
▁유색	-13233
▁육성	-13234
▁융합	-13235
▁이나	-13236
▁이라	-13237
▁이성	-13238
▁인구	-13239
▁있듯	-13240
▁잉여	-13241
▁작년	-13242
▁잘라	-13243
▁잡는	-13244
▁장애	-13245
▁잦은	-13246
▁저는	-13247
▁적게	-13248
▁적에	-13249
▁전고	-13250
▁정선	-13251
▁중소	-13252
▁중장	-13253
▁즈음	-13254
▁지향	-13255
▁직각	-13256
▁진심	-13257
▁집행	-13258
▁짓을	-13259
▁쪽도	-13260
▁찬양	-13261
▁철거	-13262
▁체포	-13263
▁초도	-13264
▁초필	-13265
▁추구	-13266
▁캡틴	-13267
▁코노	-13268
▁코르	-13269
▁클라	-13270
▁탐정	-13271
▁토오	-13272
▁트릭	-13273
▁티어	-13274
▁펌핑	-13275
▁평행	-13276
▁폐기	-13277
▁하인	-13278
▁한두	-13279
▁할까	-13280
▁화순	-13281
▁휴먼	-13282
강으로	-13283
구리네	-13284
들과의	-13285
들에서	-13286
들처럼	-13287
루미늄	-13288
바야시	-13289
백산맥	-13290
버려서	-13291
작이다	-13292
주년을	-13293
치면서	-13294
카드를	-13295
킵니다	-13296
터미널	-13297
학년도	-13298
!!!!	-13299
ARIA	-13300
Feat	-13301
GEND	-13302
ager	-13303
airy	-13304
ball	-13305
fuck	-13306
hind	-13307
ifle	-13308
illy	-13309
irth	-13310
lear	-13311
otta	-13312
umin	-13313
urst	-13314
view	-13315
ward	-13316
▁240	-13317
▁40%	-13318
▁404	-13319
▁540	-13320
▁900	-13321
▁AAA	-13322
▁AMX	-13323
▁CAF	-13324
▁CHA	-13325
▁Eye	-13326
▁GNP	-13327
▁JET	-13328
▁Joy	-13329
▁NOR	-13330
▁Not	-13331
▁Our	-13332
▁Ret	-13333
▁SAM	-13334
▁USB	-13335
▁USC	-13336
▁any	-13337
▁chu	-13338
▁may	-13339
▁감독은	-13340
▁감정을	-13341
▁거라고	-13342
▁것들을	-13343
▁계약을	-13344
▁구성원	-13345
▁그러다	-13346
▁그림이	-13347
▁기체는	-13348
▁기회가	-13349
▁길이는	-13350
▁김천시	-13351
▁끝났다	-13352
▁나오긴	-13353
▁남았다	-13354
▁넘어서	-13355
▁놓는다	-13356
▁누르고	-13357
▁뉴타입	-13358
▁느끼게	-13359
▁닌텐도	-13360
▁다음은	-13361
▁단거리	-13362
▁닮았다	-13363
▁대단한	-13364
▁대사가	-13365
▁도로의	-13366
▁되도록	-13367
▁드렛지	-13368
▁들린다	-13369
▁디스코	-13370
▁따르고	-13371
▁라스트	-13372
▁록밴드	-13373
▁마피아	-13374
▁맞추기	-13375
▁모델인	-13376
▁모드에	-13377
▁모르겠	-13378
▁모양이	-13379
▁목적은	-13380
▁문경시	-13381
▁미유키	-13382
▁방영된	-13383
▁밸런스	-13384
▁버티컬	-13385
▁번호가	-13386
▁보여줬	-13387
▁보자면	-13388
▁부스팅	-13389
▁분명히	-13390
▁붙이는	-13391
▁블록이	-13392
▁비트가	-13393
▁사고를	-13394
▁사랑의	-13395
▁사우스	-13396
▁사이를	-13397
▁사일런	-13398
▁서로의	-13399
▁서서히	-13400
▁소녀시	-13401
▁속으로	-13402
▁순서가	-13403
▁스테레	-13404
▁시그넷	-13405
▁시작에	-13406
▁실수로	-13407
▁싸움을	-13408
▁아래와	-13409
▁아리아	-13410
▁언급한	-13411
▁여기저	-13412
▁여러번	-13413
▁역이다	-13414
▁영덕군	-13415
▁오르는	-13416
▁올리고	-13417
▁외계인	-13418
▁우리는	-13419
▁원래의	-13420
▁의뢰를	-13421
▁이니셜	-13422
▁인물은	-13423
▁인제군	-13424
▁자기가	-13425
▁자켓이	-13426
▁자회사	-13427
▁작사는	-13428
▁장면은	-13429
▁장치를	-13430
▁전설적	-13431
▁정부의	-13432
▁정체가	-13433
▁조건에	-13434
▁좋다고	-13435
▁주세요	-13436
▁주어진	-13437
▁중간의	-13438
▁중에선	-13439
▁지나면	-13440
▁지역은	-13441
▁최우수	-13442
▁카드인	-13443
▁코러스	-13444
▁타이업	-13445
▁탈락한	-13446
▁토대로	-13447
▁통행이	-13448
▁트랙이	-13449
▁트릴과	-13450
▁패널티	-13451
▁프라임	-13452
▁하였고	-13453
▁해준다	-13454
▁했다는	-13455
▁행동을	-13456
▁화력을	-13457
▁후에도	-13458
▁흐르는	-13459
▁힘입어	-13460
였습니다	-13461
입니다만	-13462
해주세요	-13463
CACAF	-13464
Funky	-13465
ITAKA	-13466
break	-13467
ellow	-13468
erson	-13469
iving	-13470
oring	-13471
rough	-13472
usion	-13473
▁10."	-13474
▁1004	-13475
▁1964	-13476
▁1975	-13477
▁Best	-13478
▁Capt	-13479
▁Disc	-13480
▁Flow	-13481
▁Inst	-13482
▁Mark	-13483
▁NATO	-13484
▁Norm	-13485
▁Only	-13486
▁Stri	-13487
▁Work	-13488
▁girl	-13489
▁mine	-13490
▁part	-13491
▁play	-13492
▁sole	-13493
▁가리킨다	-13494
▁고등학교	-13495
▁곡이지만	-13496
▁공격속도	-13497
▁국제공항	-13498
▁내놓았다	-13499
▁네코마타	-13500
▁니시니혼	-13501
▁드래곤볼	-13502
▁들어가지	-13503
▁디스크셋	-13504
▁떨어졌다	-13505
▁리믹스한	-13506
▁마스코트	-13507
▁목소리를	-13508
▁바뀌면서	-13509
▁받아들여	-13510
▁발매되는	-13511
▁배치되어	-13512
▁보병전투	-13513
▁부활했다	-13514
▁분위기는	-13515
▁사용하던	-13516
▁샘플링이	-13517
▁생각하지	-13518
▁생산하는	-13519
▁시작부터	-13520
▁아니라면	-13521
▁아니므로	-13522
▁악곡으로	-13523
▁알루미늄	-13524
▁어렵다고	-13525
▁없었지만	-13526
▁엔진으로	-13527
▁우승팀이	-13528
▁위상배열	-13529
▁이것저것	-13530
▁이리저리	-13531
▁인스턴트	-13532
▁입장에서	-13533
▁자신에게	-13534
▁작곡가인	-13535
▁전투에서	-13536
▁주의하면	-13537
▁중반부의	-13538
▁지역예선	-13539
▁지역으로	-13540
▁최고기록	-13541
▁추가된다	-13542
▁충격적인	-13543
▁콜롬비아	-13544
▁클리어를	-13545
▁패러디한	-13546
▁포트리스	-13547
▁프로게임	-13548
▁프로스트	-13549
▁피렉시아	-13550
▁하나하나	-13551
▁하였으나	-13552
▁한국에는	-13553
▁확실하게	-13554
▁희생한다	-13555
ration	-13556
▁Chaos	-13557
▁Jimmy	-13558
▁MUSIC	-13559
▁Start	-13560
▁blink	-13561
▁stand	-13562
▁thing	-13563
▁결과적으로	-13564
▁나이지리아	-13565
▁리마스터링	-13566
▁방식이었다	-13567
▁설립되었다	-13568
▁성공적으로	-13569
▁스테이지의	-13570
▁시작하였다	-13571
▁안정적으로	-13572
▁엘리베이터	-13573
▁오른쪽으로	-13574
▁작곡하였다	-13575
▁진행되었고	-13576
▁프랜차이즈	-13577
▁프로젝트를	-13578
▁프로젝트의	-13579
▁하드디스크	-13580
주고속도로와	-13581
ormance	-13582
▁CROOVE	-13583
▁Gaming	-13584
▁Legend	-13585
▁People	-13586
▁삭제되었다가	-13587
▁수록되어있다	-13588
▁영동고속도로	-13589
▁플레이어에게	-13590
▁Advance	-13591
▁Fantasy	-13592
▁another	-13593
▁Hommarju	-13594
▁Beautiful	-13595
▁YOSHITAKA	-13596
▁Backstreet	-13597
''	-13598
(7	-13599
)(	-13600
08	-13601
?!	-13602
AG	-13603
Ar	-13604
GT	-13605
HD	-13606
IO	-13607
VY	-13608
gg	-13609
pm	-13610
ya	-13611
▁か	-13612
▁꼼	-13613
▁꿀	-13614
▁났	-13615
▁늑	-13616
▁멜	-13617
▁밈	-13618
▁싹	-13619
▁앰	-13620
▁엎	-13621
▁옳	-13622
▁휩	-13623
んで	-13624
가게	-13625
개조	-13626
건가	-13627
결정	-13628
국이	-13629
귀포	-13630
기리	-13631
꾸로	-13632
네이	-13633
년생	-13634
놓을	-13635
니지	-13636
대만	-13637
더는	-13638
두대	-13639
듈럼	-13640
또는	-13641
래로	-13642
량에	-13643
레어	-13644
련의	-13645
료로	-13646
리츠	-13647
마인	-13648
무늬	-13649
민이	-13650
방식	-13651
백로	-13652
법이	-13653
보로	-13654
보우	-13655
부문	-13656
비치	-13657
사나	-13658
사벽	-13659
상면	-13660
서와	-13661
수송	-13662
수욕	-13663
시야	-13664
식에	-13665
야가	-13666
양로	-13667
여자	-13668
오기	-13669
우면	-13670
원로	-13671
으으	-13672
인면	-13673
인칭	-13674
인한	-13675
일차	-13676
자고	-13677
자위	-13678
작곡	-13679
잡이	-13680
정동	-13681
제목	-13682
주차	-13683
증권	-13684
질러	-13685
집에	-13686
째로	-13687
청을	-13688
체인	-13689
커를	-13690
코로	-13691
키로	-13692
토시	-13693
티어	-13694
팀과	-13695
파를	-13696
편은	-13697
플로	-13698
피가	-13699
현우	-13700
효과	-13701
.17	-13702
.5)	-13703
/24	-13704
ASH	-13705
ATT	-13706
GHT	-13707
ICE	-13708
IDE	-13709
IEN	-13710
MBC	-13711
VEL	-13712
aka	-13713
aur	-13714
bol	-13715
bow	-13716
get	-13717
ien	-13718
ino	-13719
lev	-13720
ora	-13721
rew	-13722
ten	-13723
ule	-13724
uty	-13725
▁5%	-13726
▁DT	-13727
▁DV	-13728
▁GG	-13729
▁GL	-13730
▁HY	-13731
▁JB	-13732
▁ME	-13733
▁개회	-13734
▁거뒀	-13735
▁검사	-13736
▁고생	-13737
▁공을	-13738
▁공장	-13739
▁과잉	-13740
▁구원	-13741
▁국왕	-13742
▁그거	-13743
▁극히	-13744
▁글이	-13745
▁길드	-13746
▁깜짝	-13747
▁꼬리	-13748
▁꿈을	-13749
▁나뉜	-13750
▁날에	-13751
▁남긴	-13752
▁누나	-13753
▁뉴질	-13754
▁니콜	-13755
▁단위	-13756
▁달인	-13757
▁달콤	-13758
▁대강	-13759
▁대대	-13760
▁대박	-13761
▁대원	-13762
▁데다	-13763
▁데미	-13764
▁델타	-13765
▁도는	-13766
▁동반	-13767
▁드리	-13768
▁들면	-13769
▁듯이	-13770
▁로컬	-13771
▁마라	-13772
▁마력	-13773
▁막는	-13774
▁맡게	-13775
▁매번	-13776
▁메세	-13777
▁며칠	-13778
▁명문	-13779
▁몸에	-13780
▁미쓰	-13781
▁받기	-13782
▁방패	-13783
▁벌레	-13784
▁보수	-13785
▁보울	-13786
▁보존	-13787
▁보지	-13788
▁부수	-13789
▁분산	-13790
▁불려	-13791
▁불을	-13792
▁블래	-13793
▁빌려	-13794
▁빌리	-13795
▁사볼	-13796
▁생김	-13797
▁서드	-13798
▁선호	-13799
▁수여	-13800
▁수월	-13801
▁순애	-13802
▁슬픈	-13803
▁승자	-13804
▁시라	-13805
▁심야	-13806
▁심장	-13807
▁아님	-13808
▁아타	-13809
▁아픈	-13810
▁악기	-13811
▁악의	-13812
▁알래	-13813
▁알리	-13814
▁알제	-13815
▁앞세	-13816
▁얻기	-13817
▁여왕	-13818
▁오세	-13819
▁외모	-13820
▁외환	-13821
▁용산	-13822
▁위력	-13823
▁의존	-13824
▁인생	-13825
▁일기	-13826
▁일로	-13827
▁일제	-13828
▁읽을	-13829
▁잃고	-13830
▁저속	-13831
▁적기	-13832
▁전락	-13833
▁점에	-13834
▁정밀	-13835
▁조니	-13836
▁조의	-13837
▁조회	-13838
▁종착	-13839
▁중의	-13840
▁중하	-13841
▁지연	-13842
▁진실	-13843
▁진지	-13844
▁집착	-13845
▁짤방	-13846
▁찍을	-13847
▁처참	-13848
▁첫날	-13849
▁최약	-13850
▁춘천	-13851
▁출간	-13852
▁춤을	-13853
▁치르	-13854
▁카르	-13855
▁카츠	-13856
▁캡슐	-13857
▁클립	-13858
▁키스	-13859
▁통산	-13860
▁퇴출	-13861
▁튀는	-13862
▁트램	-13863
▁특전	-13864
▁틀린	-13865
▁팬텀	-13866
▁표정	-13867
▁필살	-13868
▁하반	-13869
▁하야	-13870
▁한창	-13871
▁합친	-13872
▁헤이	-13873
▁헨드	-13874
▁후루	-13875
거리가	-13876
글라데	-13877
당하게	-13878
된다고	-13879
들보다	-13880
때마다	-13881
란드가	-13882
러스터	-13883
리아가	-13884
방송을	-13885
비트를	-13886
사이어	-13887
스토리	-13888
신으로	-13889
아니아	-13890
에게서	-13891
영상을	-13892
오면서	-13893
운동가	-13894
일자로	-13895
정하고	-13896
조차도	-13897
주었다	-13898
클리어	-13899
패턴의	-13900
피스토	-13901
히면서	-13902
-199	-13903
/170	-13904
/320	-13905
Free	-13906
ames	-13907
atur	-13908
eral	-13909
ogue	-13910
ount	-13911
oves	-13912
ular	-13913
▁2-0	-13914
▁573	-13915
▁Act	-13916
▁Asc	-13917
▁CPS	-13918
▁Dam	-13919
▁Dec	-13920
▁Dom	-13921
▁Eng	-13922
▁FRE	-13923
▁GNI	-13924
▁Gar	-13925
▁Har	-13926
▁Hor	-13927
▁KIA	-13928
▁Luc	-13929
▁RTS	-13930
▁Rav	-13931
▁Rob	-13932
▁SIR	-13933
▁Sou	-13934
▁TAP	-13935
▁TOP	-13936
▁TVA	-13937
▁Top	-13938
▁UNI	-13939
▁Way	-13940
▁Wii	-13941
▁app	-13942
▁she	-13943
▁wac	-13944
▁가격을	-13945
▁가리지	-13946
▁가지게	-13947
▁개량한	-13948
▁개량형	-13949
▁거꾸로	-13950
▁결승에	-13951
▁경전차	-13952
▁고성군	-13953
▁고폭탄	-13954
▁금지먹	-13955
▁내리는	-13956
▁넘사벽	-13957
▁넣었다	-13958
▁넣으면	-13959
▁높아서	-13960
▁느리게	-13961
▁능력에	-13962
▁다수의	-13963
▁달라고	-13964
▁당하고	-13965
▁더러운	-13966
▁데뷔한	-13967
▁도저히	-13968
▁돌리는	-13969
▁동화에	-13970
▁드림핵	-13971
▁등장은	-13972
▁때리는	-13973
▁떨어뜨	-13974
▁릴리즈	-13975
▁마누엘	-13976
▁마에다	-13977
▁마음껏	-13978
▁맞추어	-13979
▁먹었다	-13980
▁멤버들	-13981
▁무소속	-13982
▁문서에	-13983
▁미국과	-13984
▁미래를	-13985
▁미션을	-13986
▁밀양시	-13987
▁반면에	-13988
▁받았던	-13989
▁방법도	-13990
▁배치로	-13991
▁번갈아	-13992
▁벗어난	-13993
▁변화가	-13994
▁보면을	-13995
▁보이즈	-13996
▁본사는	-13997
▁북한이	-13998
▁붙어서	-13999
▁비행기	-14000
▁빨간색	-14001
▁사건은	-14002
▁사용될	-14003
▁생물에	-14004
▁서포터	-14005
▁설립된	-14006
▁설명이	-14007
▁성적이	-14008
▁소문이	-14009
▁소속사	-14010
▁솔리드	-14011
▁스프링	-14012
▁슬레이	-14013
▁승리한	-14014
▁승무원	-14015
▁시간은	-14016
▁시점이	-14017
▁아군의	-14018
▁아니야	-14019
▁아저씨	-14020
▁않았을	-14021
▁어웨이	-14022
▁연구를	-14023
▁예정인	-14024
▁오락실	-14025
▁오마쥬	-14026
▁위험한	-14027
▁유닛의	-14028
▁이끌어	-14029
▁이지투	-14030
▁인증을	-14031
▁일본을	-14032
▁일본이	-14033
▁있음을	-14034
▁전장을	-14035
▁제조사	-14036
▁조합이	-14037
▁중심의	-14038
▁청주시	-14039
▁커리어	-14040
▁코리아	-14041
▁텍사스	-14042
▁토큰을	-14043
▁통하여	-14044
▁티켓을	-14045
▁팀이다	-14046
▁파트를	-14047
▁판정을	-14048
▁펜듈럼	-14049
▁포함해	-14050
▁폭탄을	-14051
▁풀버전	-14052
▁프라이	-14053
▁한국은	-14054
▁할아버	-14055
▁항목에	-14056
▁해군이	-14057
▁행사가	-14058
▁현상이	-14059
▁혈액형	-14060
▁화력이	-14061
▁효과도	-14062
고등학교	-14063
년부터는	-14064
들에게도	-14065
시리즈의	-14066
시킵니다	-14067
이라고는	-14068
이었다고	-14069
초등학교	-14070
OSUKE	-14071
arkey	-14072
etter	-14073
gress	-14074
obile	-14075
ounce	-14076
video	-14077
▁1100	-14078
▁1942	-14079
▁1943	-14080
▁1956	-14081
▁1966	-14082
▁1967	-14083
▁Area	-14084
▁Conf	-14085
▁Core	-14086
▁Dear	-14087
▁Doom	-14088
▁Edge	-14089
▁Ever	-14090
▁Fast	-14091
▁GOLI	-14092
▁Game	-14093
▁Give	-14094
▁ICDL	-14095
▁Long	-14096
▁Mill	-14097
▁Oper	-14098
▁TOUR	-14099
▁ever	-14100
▁find	-14101
▁line	-14102
▁perf	-14103
▁some	-14104
▁turn	-14105
▁wall	-14106
▁가능성도	-14107
▁가능성을	-14108
▁것입니다	-14109
▁근처에서	-14110
▁남북으로	-14111
▁노선번호	-14112
▁뉴질랜드	-14113
▁대체하는	-14114
▁돌아다니	-14115
▁되돌린다	-14116
▁되었다는	-14117
▁들어가기	-14118
▁레이더를	-14119
▁리믹스를	-14120
▁마츠오카	-14121
▁말그대로	-14122
▁메구리네	-14123
▁면에서는	-14124
▁몽환적인	-14125
▁무시하고	-14126
▁무언가를	-14127
▁받아들이	-14128
▁방글라데	-14129
▁방어력을	-14130
▁뱀파이어	-14131
▁보이는데	-14132
▁부드러운	-14133
▁부분이다	-14134
▁블리자드	-14135
▁사이터스	-14136
▁사정으로	-14137
▁삭제되고	-14138
▁상징하는	-14139
▁생물에게	-14140
▁시스템의	-14141
▁시작하면	-14142
▁시작했고	-14143
▁시종일관	-14144
▁신곡으로	-14145
▁아니라서	-14146
▁알래스카	-14147
▁애매하다	-14148
▁엔지니어	-14149
▁연고지로	-14150
▁오디세이	-14151
▁우승하며	-14152
▁의미에서	-14153
▁이외에는	-14154
▁일렉트릭	-14155
▁입장에선	-14156
▁장착되어	-14157
▁재미있는	-14158
▁적용된다	-14159
▁전까지는	-14160
▁제작하는	-14161
▁준우승을	-14162
▁중반부에	-14163
▁지그재그	-14164
▁직접적인	-14165
▁차량으로	-14166
▁차지하는	-14167
▁처리해야	-14168
▁철도차량	-14169
▁최상위권	-14170
▁추천한다	-14171
▁캐나다의	-14172
▁코피어스	-14173
▁클라이언	-14174
▁텔레비전	-14175
▁패턴들이	-14176
▁포장되어	-14177
▁포지션을	-14178
▁포함해서	-14179
▁프로토콜	-14180
▁프리스타	-14181
▁해당되는	-14182
▁해당된다	-14183
▁후반에는	-14184
▁히로시마	-14185
즈베키스탄	-14186
imited	-14187
mother	-14188
oddamn	-14189
ottles	-14190
▁(2012	-14191
▁Alara	-14192
▁Album	-14193
▁CLAMP	-14194
▁SONIC	-14195
▁Sport	-14196
▁WHITE	-14197
▁their	-14198
▁video	-14199
▁감사합니다	-14200
▁결승전에서	-14201
▁다큐멘터리	-14202
▁대부분이다	-14203
▁대한민국이	-14204
▁때문이라고	-14205
▁부여마법을	-14206
▁부족수이다	-14207
▁사용되기도	-14208
▁선정되었다	-14209
▁안드로메다	-14210
▁이루어졌다	-14211
▁인터뷰에서	-14212
▁커맨더에서	-14213
▁프로그램의	-14214
▁하마사키의	-14215
▁홈페이지의	-14216
▁Bridge	-14217
▁Cosmic	-14218
▁FXOpen	-14219
▁Flying	-14220
▁Nights	-14221
▁SIRIUS	-14222
▁Shadow	-14223
▁always	-14224
▁little	-14225
▁should	-14226
▁기본적으로는	-14227
▁발매되었으며	-14228
▁제작했습니다	-14229
▁홈페이지에서	-14230
GENDARIA	-14231
▁Journey	-14232
▁Network	-14233
▁제주특별자치도	-14234
▁Evolution	-14235
▁DanceDance	-14236
▁LEGGENDARIA	-14237
.,	-14238
/9	-14239
82	-14240
BB	-14241
Be	-14242
Br	-14243
OK	-14244
Re	-14245
Sk	-14246
Sp	-14247
VR	-14248
We	-14249
ma	-14250
sk	-14251
sy	-14252
на	-14253
▁と	-14254
▁は	-14255
▁ま	-14256
▁夢	-14257
▁小	-14258
▁람	-14259
▁럭	-14260
▁삿	-14261
▁샀	-14262
▁쇠	-14263
▁쏴	-14264
▁씌	-14265
▁앗	-14266
▁챙	-14267
▁톨	-14268
▁톰	-14269
▁튼	-14270
▁팽	-14271
▁헛	-14272
▁홋	-14273
じゃ	-14274
の日	-14275
んだ	-14276
ショ	-14277
가수	-14278
가스	-14279
각각	-14280
감은	-14281
겨운	-14282
고에	-14283
곡도	-14284
국과	-14285
국인	-14286
군데	-14287
군도	-14288
근접	-14289
기생	-14290
내의	-14291
니무	-14292
당해	-14293
대화	-14294
더를	-14295
더슨	-14296
독일	-14297
두면	-14298
라미	-14299
란츠	-14300
러나	-14301
러와	-14302
럽게	-14303
례를	-14304
림면	-14305
마루	-14306
마일	-14307
메르	-14308
면이	-14309
모닝	-14310
문학	-14311
민을	-14312
반은	-14313
배를	-14314
뱌쿠	-14315
번과	-14316
변로	-14317
변이	-14318
분간	-14319
블러	-14320
비에	-14321
섰다	-14322
성장	-14323
셀러	-14324
수준	-14325
술을	-14326
스핀	-14327
쓰는	-14328
아네	-14329
안해	-14330
야만	-14331
역은	-14332
연의	-14333
영어	-14334
예산	-14335
우리	-14336
우며	-14337
워진	-14338
원구	-14339
월면	-14340
유가	-14341
이론	-14342
이시	-14343
장씩	-14344
저가	-14345
저냥	-14346
점씩	-14347
제도	-14348
제와	-14349
죠의	-14350
중량	-14351
지구	-14352
지금	-14353
진을	-14354
차는	-14355
차와	-14356
채보	-14357
책을	-14358
첼리	-14359
층을	-14360
카의	-14361
커맨	-14362
쿠의	-14363
크레	-14364
크리	-14365
키와	-14366
트맨	-14367
티를	-14368
티의	-14369
팅이	-14370
파라	-14371
포스	-14372
포인	-14373
표의	-14374
품의	-14375
프랑	-14376
프터	-14377
해볼	-14378
해온	-14379
회복	-14380
-54	-14381
One	-14382
PGA	-14383
VAS	-14384
ado	-14385
arn	-14386
aya	-14387
aza	-14388
era	-14389
ilt	-14390
isc	-14391
omb	-14392
oto	-14393
uct	-14394
▁(0	-14395
▁81	-14396
▁EU	-14397
▁FV	-14398
▁Fr	-14399
▁GF	-14400
▁Gh	-14401
▁Il	-14402
▁Ne	-14403
▁RH	-14404
▁WS	-14405
▁tu	-14406
▁tw	-14407
▁キミ	-14408
▁가창	-14409
▁감옥	-14410
▁개명	-14411
▁개입	-14412
▁갱킹	-14413
▁건재	-14414
▁건지	-14415
▁걸면	-14416
▁경남	-14417
▁곁에	-14418
▁고질	-14419
▁골프	-14420
▁광산	-14421
▁교전	-14422
▁구룡	-14423
▁구할	-14424
▁그쪽	-14425
▁기가	-14426
▁기뻐	-14427
▁기아	-14428
▁기울	-14429
▁깨알	-14430
▁꿈의	-14431
▁나간	-14432
▁나아	-14433
▁날짜	-14434
▁날카	-14435
▁남원	-14436
▁냉각	-14437
▁능가	-14438
▁닌자	-14439
▁다색	-14440
▁대서	-14441
▁돈이	-14442
▁동력	-14443
▁두꺼	-14444
▁둘다	-14445
▁둘을	-14446
▁뒤인	-14447
▁든다	-14448
▁듣보	-14449
▁따뜻	-14450
▁레가	-14451
▁레논	-14452
▁로윈	-14453
▁롤링	-14454
▁마감	-14455
▁마약	-14456
▁마틴	-14457
▁맞물	-14458
▁맞출	-14459
▁맵은	-14460
▁명시	-14461
▁모포	-14462
▁몰락	-14463
▁무진	-14464
▁묶여	-14465
▁물질	-14466
▁미연	-14467
▁믿음	-14468
▁바나	-14469
▁바주	-14470
▁반동	-14471
▁발레	-14472
▁방심	-14473
▁버렸	-14474
▁벚꽃	-14475
▁벡터	-14476
▁보낸	-14477
▁보드	-14478
▁보완	-14479
▁복수	-14480
▁본체	-14481
▁본토	-14482
▁봤을	-14483
▁부러	-14484
▁부적	-14485
▁부흥	-14486
▁블라	-14487
▁뻥튀	-14488
▁사카	-14489
▁산악	-14490
▁살린	-14491
▁샌드	-14492
▁서방	-14493
▁설상	-14494
▁속의	-14495
▁손배	-14496
▁수납	-14497
▁숙지	-14498
▁시부	-14499
▁실로	-14500
▁십상	-14501
▁싱어	-14502
▁싶지	-14503
▁쌓아	-14504
▁아즈	-14505
▁안성	-14506
▁암호	-14507
▁양손	-14508
▁어쿠	-14509
▁얼터	-14510
▁역도	-14511
▁역을	-14512
▁연대	-14513
▁오덕	-14514
▁오렌	-14515
▁오빠	-14516
▁오키	-14517
▁와중	-14518
▁와카	-14519
▁요금	-14520
▁요리	-14521
▁요정	-14522
▁용문	-14523
▁울티	-14524
▁원격	-14525
▁유선	-14526
▁응용	-14527
▁이날	-14528
▁이치	-14529
▁인사	-14530
▁일격	-14531
▁일절	-14532
▁일환	-14533
▁임실	-14534
▁입단	-14535
▁잠입	-14536
▁잡은	-14537
▁장악	-14538
▁장의	-14539
▁장흥	-14540
▁재결	-14541
▁재킷	-14542
▁적힌	-14543
▁전량	-14544
▁점유	-14545
▁정글	-14546
▁정직	-14547
▁조교	-14548
▁죽지	-14549
▁즉사	-14550
▁증권	-14551
▁지식	-14552
▁지오	-14553
▁진격	-14554
▁질병	-14555
▁짜여	-14556
▁짧고	-14557
▁차가	-14558
▁차용	-14559
▁착수	-14560
▁책을	-14561
▁철원	-14562
▁청년	-14563
▁체결	-14564
▁체제	-14565
▁충족	-14566
▁치열	-14567
▁침입	-14568
▁캐릭	-14569
▁커녕	-14570
▁케빈	-14571
▁크롬	-14572
▁태어	-14573
▁터렛	-14574
▁토우	-14575
▁특급	-14576
▁특기	-14577
▁평창	-14578
▁포럼	-14579
▁포를	-14580
▁풍경	-14581
▁피를	-14582
▁하긴	-14583
▁합산	-14584
▁해에	-14585
▁허들	-14586
▁헌터	-14587
▁화폐	-14588
▁회장	-14589
▁흑백	-14590
▁흑인	-14591
きっと	-14592
개조로	-14593
개팀이	-14594
공사가	-14595
나라의	-14596
노트의	-14597
놓으면	-14598
달라고	-14599
때부터	-14600
라스틱	-14601
랍니다	-14602
레이버	-14603
르기스	-14604
리온의	-14605
마나를	-14606
산면과	-14607
선에서	-14608
수있다	-14609
신도시	-14610
위에서	-14611
위원회	-14612
자동차	-14613
자이다	-14614
졌다는	-14615
중앙로	-14616
카드로	-14617
커니즘	-14618
테이션	-14619
토리아	-14620
프로젝	-14621
플래시	-14622
했는지	-14623
..."	-14624
/110	-14625
ANCE	-14626
ASIC	-14627
OWER	-14628
Only	-14629
TION	-14630
Trip	-14631
aker	-14632
anic	-14633
ella	-14634
ison	-14635
ives	-14636
oman	-14637
raph	-14638
ring	-14639
rior	-14640
roll	-14641
rong	-14642
unic	-14643
utor	-14644
▁(4:	-14645
▁113	-14646
▁125	-14647
▁2."	-14648
▁25%	-14649
▁5.5	-14650
▁ALC	-14651
▁Atl	-14652
▁CCR	-14653
▁DIS	-14654
▁Dar	-14655
▁END	-14656
▁EUD	-14657
▁EVE	-14658
▁Eld	-14659
▁FPS	-14660
▁HAN	-14661
▁JAP	-14662
▁MAC	-14663
▁Nav	-14664
▁PDW	-14665
▁San	-14666
▁Sav	-14667
▁Say	-14668
▁Tre	-14669
▁Tur	-14670
▁got	-14671
▁has	-14672
▁him	-14673
▁off	-14674
▁갈린다	-14675
▁강하게	-14676
▁결과가	-14677
▁경험을	-14678
▁계열사	-14679
▁곳곳에	-14680
▁공간이	-14681
▁공격에	-14682
▁공주시	-14683
▁구성을	-14684
▁그것과	-14685
▁그들을	-14686
▁그러니	-14687
▁그림체	-14688
▁금성이	-14689
▁기록해	-14690
▁끝나면	-14691
▁나뉜다	-14692
▁날개를	-14693
▁남자의	-14694
▁녹음을	-14695
▁능력의	-14696
▁다시금	-14697
▁단어가	-14698
▁대만은	-14699
▁데스크	-14700
▁동남구	-14701
▁되므로	-14702
▁되어야	-14703
▁되었을	-14704
▁두가지	-14705
▁라이온	-14706
▁레이크	-14707
▁리그앙	-14708
▁리듬이	-14709
▁만화가	-14710
▁말하고	-14711
▁맥시멈	-14712
▁멋대로	-14713
▁메뉴를	-14714
▁면에서	-14715
▁모드를	-14716
▁모르게	-14717
▁못지않	-14718
▁못했던	-14719
▁무승부	-14720
▁무장은	-14721
▁물건을	-14722
▁바닥에	-14723
▁박자에	-14724
▁박자의	-14725
▁버전별	-14726
▁버전에	-14727
▁번째로	-14728
▁보면서	-14729
▁보스가	-14730
▁보스를	-14731
▁분데스	-14732
▁불규칙	-14733
▁빼고는	-14734
▁사라져	-14735
▁사악한	-14736
▁사용을	-14737
▁살아가	-14738
▁상에서	-14739
▁생산된	-14740
▁생활을	-14741
▁서귀포	-14742
▁선정된	-14743
▁설정상	-14744
▁성향을	-14745
▁셀러론	-14746
▁소녀의	-14747
▁소수의	-14748
▁소환할	-14749
▁손에서	-14750
▁수록이	-14751
▁스나이	-14752
▁시리아	-14753
▁시즌을	-14754
▁싱글인	-14755
▁싶으면	-14756
▁쓰였던	-14757
▁아닌데	-14758
▁아바타	-14759
▁아스팔	-14760
▁아유미	-14761
▁안타깝	-14762
▁얘기가	-14763
▁언젠가	-14764
▁여행을	-14765
▁연결된	-14766
▁영단어	-14767
▁예천군	-14768
▁오비탈	-14769
▁오시아	-14770
▁올드필	-14771
▁외치는	-14772
▁우타다	-14773
▁운영체	-14774
▁위기에	-14775
▁음원을	-14776
▁이집트	-14777
▁익숙한	-14778
▁일본인	-14779
▁읽으며	-14780
▁작곡을	-14781
▁잘못된	-14782
▁장르로	-14783
▁적들을	-14784
▁전개가	-14785
▁전투시	-14786
▁정도에	-14787
▁정해진	-14788
▁제목과	-14789
▁종착역	-14790
▁주포로	-14791
▁죽으면	-14792
▁중앙값	-14793
▁즐겁게	-14794
▁진출을	-14795
▁진행이	-14796
▁쪽에서	-14797
▁차량을	-14798
▁차례로	-14799
▁찾아서	-14800
▁채널의	-14801
▁처리가	-14802
▁초반부	-14803
▁초음속	-14804
▁총류탄	-14805
▁카운트	-14806
▁카테고	-14807
▁커플링	-14808
▁크리에	-14809
▁클럽이	-14810
▁타입이	-14811
▁태어나	-14812
▁테이블	-14813
▁팀들이	-14814
▁파일이	-14815
▁파트가	-14816
▁판권곡	-14817
▁팬들을	-14818
▁표시로	-14819
▁표현할	-14820
▁풀렸다	-14821
▁피쳐링	-14822
▁하동군	-14823
▁한계를	-14824
▁합쳐서	-14825
▁항목은	-14826
▁해금할	-14827
▁해법의	-14828
▁헝가리	-14829
▁화면을	-14830
▁히가시	-14831
아키텍처	-14832
으로서의	-14833
전에서는	-14834
allen	-14835
ating	-14836
ennec	-14837
ility	-14838
naver	-14839
onder	-14840
▁1941	-14841
▁1962	-14842
▁1969	-14843
▁1977	-14844
▁Arch	-14845
▁BALL	-14846
▁Boss	-14847
▁CSKA	-14848
▁Circ	-14849
▁City	-14850
▁Evil	-14851
▁Here	-14852
▁ONLY	-14853
▁Show	-14854
▁Some	-14855
▁stop	-14856
▁when	-14857
▁yeah	-14858
▁{{{#	-14859
▁가능하기	-14860
▁관계없이	-14861
▁관통하는	-14862
▁그라나다	-14863
▁그래픽이	-14864
▁그레고리	-14865
▁그레이브	-14866
▁난이도도	-14867
▁남아있다	-14868
▁너무나도	-14869
▁누군가가	-14870
▁늘어난다	-14871
▁능력치를	-14872
▁다행히도	-14873
▁단독으로	-14874
▁대회부터	-14875
▁덧붙여서	-14876
▁동일하게	-14877
▁두번째로	-14878
▁들어온다	-14879
▁떨어지고	-14880
▁만나면서	-14881
▁모양으로	-14882
▁몰아치는	-14883
▁무방하다	-14884
▁물건이다	-14885
▁받았지만	-14886
▁발사되는	-14887
▁버라이즌	-14888
▁베이스가	-14889
▁분위기와	-14890
▁비해서는	-14891
▁사거리를	-14892
▁사용하게	-14893
▁사이트에	-14894
▁상대방을	-14895
▁세트에서	-14896
▁소녀시대	-14897
▁스타일을	-14898
▁스타일이	-14899
▁신경쓰지	-14900
▁아마사와	-14901
▁아이디어	-14902
▁어나더의	-14903
▁어려움을	-14904
▁어울리는	-14905
▁어쿠스틱	-14906
▁없습니다	-14907
▁에너지를	-14908
▁여기저기	-14909
▁여주인공	-14910
▁영향으로	-14911
▁운행하는	-14912
▁움직인다	-14913
▁위치하고	-14914
▁유럽에서	-14915
▁유저들을	-14916
▁이것으로	-14917
▁이시카와	-14918
▁이어졌다	-14919
▁이전부터	-14920
▁인더스트	-14921
▁인터뷰를	-14922
▁인피니티	-14923
▁자동소총	-14924
▁전뇌전기	-14925
▁전설적인	-14926
▁조별예선	-14927
▁조심하자	-14928
▁주어진다	-14929
▁주인공을	-14930
▁중반부터	-14931
▁중화인민	-14932
▁지역에서	-14933
▁지정되어	-14934
▁진행하는	-14935
▁차원에서	-14936
▁참고하여	-14937
▁챔피언쉽	-14938
▁초반부에	-14939
▁카드들은	-14940
▁코바야시	-14941
▁코버넌트	-14942
▁퀄리티는	-14943
▁터지면서	-14944
▁하나였다	-14945
▁하프라이	-14946
▁해리슨의	-14947
▁헬게이트	-14948
▁형태이다	-14949
▁후쿠오카	-14950
하겠습니다	-14951
achine	-14952
ancing	-14953
armony	-14954
ension	-14955
fuckin	-14956
geddon	-14957
▁20000	-14958
▁After	-14959
▁Brave	-14960
▁Broad	-14961
▁Disco	-14962
▁Grand	-14963
▁Group	-14964
▁MODEL	-14965
▁Round	-14966
▁Sleep	-14967
▁TOTTO	-14968
▁Vault	-14969
▁Watch	-14970
▁music	-14971
▁where	-14972
▁교체되었다	-14973
▁동시치기와	-14974
▁라이브에서	-14975
▁시뮬레이터	-14976
▁시스템이다	-14977
▁신시사이저	-14978
▁실패하였다	-14979
▁아니더라도	-14980
▁아시안게임	-14981
▁안녕하세요	-14982
▁에피소드가	-14983
▁영국에서는	-14984
▁완료되었다	-14985
▁유튜브에서	-14986
▁이니스트라	-14987
▁인상적이다	-14988
▁있었습니다	-14989
▁재판되었다	-14990
▁좋겠습니다	-14991
▁타지키스탄	-14992
▁판권곡으로	-14993
▁평가받는다	-14994
▁후반부에는	-14995
천고속도로와	-14996
goddamn	-14997
▁(2008)	-14998
▁CANVAS	-14999
▁Combat	-15000
▁Fennec	-15001
▁Hammer	-15002
▁Lonely	-15003
▁Mystic	-15004
▁Pistol	-15005
▁Record	-15006
▁Termin	-15007
▁Winter	-15008
▁nobody	-15009
▁sorrow	-15010
▁수록되었는데	-15011
▁Rolling	-15012
▁forever	-15013
▁마이크로아키텍처	-15014
▁Performance	-15015
53	-15016
BT	-15017
CL	-15018
CO	-15019
EA	-15020
FT	-15021
LP	-15022
NT	-15023
SM	-15024
by	-15025
ja	-15026
jp	-15027
ва	-15028
▁]	-15029
▁م	-15030
▁前	-15031
▁멍	-15032
▁쵸	-15033
▁펄	-15034
こう	-15035
るよ	-15036
ング	-15037
ーズ	-15038
값이	-15039
강과	-15040
개는	-15041
거다	-15042
거래	-15043
계는	-15044
관은	-15045
교가	-15046
구미	-15047
국을	-15048
기게	-15049
기통	-15050
깊은	-15051
남리	-15052
남읍	-15053
내서	-15054
너가	-15055
년경	-15056
년은	-15057
노가	-15058
노벨	-15059
니를	-15060
단지	-15061
답지	-15062
덕션	-15063
독한	-15064
두로	-15065
디스	-15066
디의	-15067
뚱한	-15068
라비	-15069
럭스	-15070
령은	-15071
루와	-15072
률은	-15073
리던	-15074
리언	-15075
리젠	-15076
리코	-15077
립스	-15078
마와	-15079
말이	-15080
매를	-15081
맥스	-15082
무도	-15083
물량	-15084
물론	-15085
미션	-15086
박한	-15087
반이	-15088
받을	-15089
발표	-15090
버거	-15091
보그	-15092
본부	-15093
브레	-15094
브의	-15095
비슷	-15096
뿌요	-15097
뿐인	-15098
사기	-15099
서비	-15100
석면	-15101
성애	-15102
세다	-15103
세라	-15104
셔서	-15105
소는	-15106
소설	-15107
속에	-15108
술의	-15109
시면	-15110
시바	-15111
실점	-15112
심한	-15113
악기	-15114
안한	-15115
앤젤	-15116
역과	-15117
온이	-15118
워너	-15119
유로	-15120
유희	-15121
으려	-15122
인인	-15123
일보	-15124
일생	-15125
자도	-15126
자이	-15127
작가	-15128
작사	-15129
적에	-15130
전리	-15131
전한	-15132
절이	-15133
점프	-15134
제인	-15135
제트	-15136
조와	-15137
조한	-15138
종이	-15139
좋은	-15140
줘서	-15141
쯤에	-15142
창을	-15143
천동	-15144
카라	-15145
카즈	-15146
칸쟈	-15147
커스	-15148
탄면	-15149
테이	-15150
파가	-15151
파괴	-15152
편과	-15153
포와	-15154
표로	-15155
풍로	-15156
피를	-15157
피스	-15158
하가	-15159
하리	-15160
하마	-15161
하신	-15162
할지	-15163
해준	-15164
형태	-15165
호대	-15166
홈런	-15167
화폐	-15168
(!!	-15169
-00	-15170
-02	-15171
-08	-15172
-29	-15173
-64	-15174
-80	-15175
/14	-15176
ABI	-15177
CRA	-15178
DER	-15179
EMO	-15180
OCK	-15181
ULL	-15182
acy	-15183
alt	-15184
aze	-15185
erg	-15186
mas	-15187
ope	-15188
tar	-15189
▁(=	-15190
▁61	-15191
▁94	-15192
▁AJ	-15193
▁BP	-15194
▁Bu	-15195
▁Ha	-15196
▁Hi	-15197
▁Ju	-15198
▁MD	-15199
▁NH	-15200
▁OK	-15201
▁OP	-15202
▁SM	-15203
▁TI	-15204
▁ft	-15205
▁ur	-15206
▁そう	-15207
▁それ	-15208
▁가곡	-15209
▁가량	-15210
▁간편	-15211
▁갖는	-15212
▁개박	-15213
▁개성	-15214
▁개척	-15215
▁거지	-15216
▁것만	-15217
▁골라	-15218
▁공정	-15219
▁공주	-15220
▁과제	-15221
▁관여	-15222
▁광양	-15223
▁괴산	-15224
▁교향	-15225
▁기괴	-15226
▁기판	-15227
▁김태	-15228
▁까는	-15229
▁깔려	-15230
▁꺼낸	-15231
▁꿈도	-15232
▁나기	-15233
▁나인	-15234
▁납품	-15235
▁낮다	-15236
▁내면	-15237
▁내수	-15238
▁너와	-15239
▁노획	-15240
▁논쟁	-15241
▁누르	-15242
▁다다	-15243
▁닮은	-15244
▁당첨	-15245
▁대문	-15246
▁도트	-15247
▁독보	-15248
▁동급	-15249
▁동년	-15250
▁두께	-15251
▁둘의	-15252
▁뒤늦	-15253
▁뜯어	-15254
▁뜻이	-15255
▁라면	-15256
▁라트	-15257
▁로이	-15258
▁로케	-15259
▁리나	-15260
▁리부	-15261
▁마운	-15262
▁마작	-15263
▁막혀	-15264
▁많을	-15265
▁맑은	-15266
▁맵을	-15267
▁먹은	-15268
▁모래	-15269
▁못지	-15270
▁묘한	-15271
▁무라	-15272
▁무의	-15273
▁문을	-15274
▁물을	-15275
▁미츠	-15276
▁미칠	-15277
▁바흐	-15278
▁박정	-15279
▁반전	-15280
▁밝고	-15281
▁백과	-15282
▁뱌쿠	-15283
▁법칙	-15284
▁병맛	-15285
▁보행	-15286
▁봐서	-15287
▁부각	-15288
▁부실	-15289
▁북동	-15290
▁불쌍	-15291
▁불어	-15292
▁붙일	-15293
▁브레	-15294
▁브리	-15295
▁사와	-15296
▁사의	-15297
▁사키	-15298
▁살상	-15299
▁삼고	-15300
▁상담	-15301
▁상반	-15302
▁상용	-15303
▁새벽	-15304
▁소드	-15305
▁손오	-15306
▁수능	-15307
▁수사	-15308
▁수십	-15309
▁수평	-15310
▁스리	-15311
▁스킵	-15312
▁스탭	-15313
▁시사	-15314
▁시초	-15315
▁신문	-15316
▁신사	-15317
▁실황	-15318
▁쏜다	-15319
▁씨의	-15320
▁씹어	-15321
▁앙크	-15322
▁약속	-15323
▁어둡	-15324
▁에미	-15325
▁영미	-15326
▁예쁘	-15327
▁온다	-15328
▁외전	-15329
▁외형	-15330
▁용도	-15331
▁우측	-15332
▁워프	-15333
▁원더	-15334
▁유령	-15335
▁유재	-15336
▁유진	-15337
▁이모	-15338
▁이슈	-15339
▁이클	-15340
▁임시	-15341
▁임진	-15342
▁입을	-15343
▁자금	-15344
▁자칫	-15345
▁잡혀	-15346
▁전북	-15347
▁절망	-15348
▁조명	-15349
▁조에	-15350
▁종사	-15351
▁주둔	-15352
▁주사	-15353
▁죽어	-15354
▁중공	-15355
▁중립	-15356
▁집계	-15357
▁짧아	-15358
▁찍는	-15359
▁찾고	-15360
▁철수	-15361
▁청량	-15362
▁초과	-15363
▁취약	-15364
▁친한	-15365
▁칠곡	-15366
▁칩튠	-15367
▁카가	-15368
▁캐치	-15369
▁커비	-15370
▁컴뱃	-15371
▁코나	-15372
▁코렁	-15373
▁키가	-15374
▁테일	-15375
▁템플	-15376
▁토론	-15377
▁통계	-15378
▁트렌	-15379
▁틀림	-15380
▁패닉	-15381
▁패킷	-15382
▁폭이	-15383
▁폭파	-15384
▁표면	-15385
▁퓨처	-15386
▁한층	-15387
▁한해	-15388
▁합격	-15389
▁해설	-15390
▁행운	-15391
▁헤라	-15392
▁혼성	-15393
▁혼합	-15394
▁화재	-15395
군다나	-15396
군에서	-15397
그래픽	-15398
기관차	-15399
너티브	-15400
단에서	-15401
대교를	-15402
라이버	-15403
레벨이	-15404
레이크	-15405
릅니다	-15406
리기도	-15407
리스의	-15408
리우스	-15409
보인다	-15410
브라질	-15411
수욕장	-15412
실상부	-15413
어지고	-15414
었는지	-15415
역에서	-15416
연타가	-15417
오피아	-15418
워하는	-15419
웨어를	-15420
유닛을	-15421
일지도	-15422
적으론	-15423
정도의	-15424
지거나	-15425
지므로	-15426
집니다	-15427
체스터	-15428
크에서	-15429
피디아	-15430
하느냐	-15431
하라는	-15432
해야만	-15433
화국의	-15434
효과를	-15435
(..)	-15436
-3-4	-15437
...'	-15438
.2.2	-15439
AVEN	-15440
BEAT	-15441
Perf	-15442
akes	-15443
iber	-15444
nect	-15445
ocus	-15446
ousy	-15447
play	-15448
plos	-15449
ried	-15450
ught	-15451
ures	-15452
ving	-15453
▁(10	-15454
▁0.0	-15455
▁0.1	-15456
▁2,3	-15457
▁220	-15458
▁3."	-15459
▁4-3	-15460
▁4/4	-15461
▁450	-15462
▁619	-15463
▁95%	-15464
▁AST	-15465
▁BBS	-15466
▁Box	-15467
▁Cry	-15468
▁DMB	-15469
▁DPH	-15470
▁GAB	-15471
▁GTO	-15472
▁Hel	-15473
▁INS	-15474
▁Jun	-15475
▁Lie	-15476
▁Lun	-15477
▁PRO	-15478
▁Pal	-15479
▁Pet	-15480
▁Sim	-15481
▁Sol	-15482
▁Tra	-15483
▁Two	-15484
▁XBV	-15485
▁apt	-15486
▁cry	-15487
▁iOS	-15488
▁sky	-15489
▁가면서	-15490
▁것이며	-15491
▁것인가	-15492
▁경계에	-15493
▁경전철	-15494
▁공방이	-15495
▁관리자	-15496
▁굉장한	-15497
▁구미시	-15498
▁그려져	-15499
▁기다려	-15500
▁기염을	-15501
▁나에게	-15502
▁날개가	-15503
▁날리는	-15504
▁노트와	-15505
▁녹음한	-15506
▁놀라운	-15507
▁높으며	-15508
▁높지만	-15509
▁느리다	-15510
▁다니엘	-15511
▁단어의	-15512
▁대회와	-15513
▁독일이	-15514
▁되었던	-15515
▁드러나	-15516
▁디시인	-15517
▁떨어질	-15518
▁레벨업	-15519
▁레이브	-15520
▁로버트	-15521
▁마디로	-15522
▁마을을	-15523
▁만만치	-15524
▁멜로딕	-15525
▁모종의	-15526
▁무거운	-15527
▁무기가	-15528
▁무난히	-15529
▁무득점	-15530
▁무언가	-15531
▁무지개	-15532
▁무진장	-15533
▁문서의	-15534
▁묻혔다	-15535
▁미국은	-15536
▁미국이	-15537
▁미수록	-15538
▁미스가	-15539
▁바이크	-15540
▁박자로	-15541
▁받기도	-15542
▁배치된	-15543
▁밴드인	-15544
▁보스로	-15545
▁본인도	-15546
▁부분만	-15547
▁부여된	-15548
▁부제가	-15549
▁부탁해	-15550
▁브로드	-15551
▁블러드	-15552
▁비율이	-15553
▁비트를	-15554
▁빛나는	-15555
▁빠져나	-15556
▁뽑는다	-15557
▁사건에	-15558
▁사이클	-15559
▁사진은	-15560
▁사진이	-15561
▁사태가	-15562
▁산하의	-15563
▁삼거리	-15564
▁섀도우	-15565
▁성과를	-15566
▁세리에	-15567
▁세트에	-15568
▁소련이	-15569
▁수록될	-15570
▁수준에	-15571
▁순서는	-15572
▁스테이	-15573
▁스트릿	-15574
▁시간에	-15575
▁시기는	-15576
▁시대가	-15577
▁시드를	-15578
▁시에라	-15579
▁심각한	-15580
▁싸이클	-15581
▁쏟아져	-15582
▁쓰는데	-15583
▁아나타	-15584
▁아니며	-15585
▁아닐까	-15586
▁아래로	-15587
▁아래에	-15588
▁아테네	-15589
▁않을까	-15590
▁알리는	-15591
▁언급이	-15592
▁엇박이	-15593
▁에이벡	-15594
▁여름에	-15595
▁연타를	-15596
▁열렸다	-15597
▁영감을	-15598
▁영천시	-15599
▁예전에	-15600
▁요즘은	-15601
▁우연히	-15602
▁원곡을	-15603
▁위클리	-15604
▁유리한	-15605
▁이대로	-15606
▁이들을	-15607
▁이르러	-15608
▁이어진	-15609
▁이해가	-15610
▁일부는	-15611
▁일요일	-15612
▁일이다	-15613
▁일정을	-15614
▁일컫는	-15615
▁읽으면	-15616
▁입는다	-15617
▁입니다	-15618
▁있기는	-15619
▁자책골	-15620
▁자켓에	-15621
▁자켓의	-15622
▁장착할	-15623
▁장탄수	-15624
▁저렇게	-15625
▁적어도	-15626
▁적외선	-15627
▁전용곡	-15628
▁제약이	-15629
▁조건은	-15630
▁존재가	-15631
▁좋다는	-15632
▁좋은데	-15633
▁준수한	-15634
▁중국이	-15635
▁중위권	-15636
▁찍으면	-15637
▁차량은	-15638
▁채널을	-15639
▁청도군	-15640
▁최상위	-15641
▁취미는	-15642
▁카드라	-15643
▁캠페인	-15644
▁컨트리	-15645
▁코드명	-15646
▁코스를	-15647
▁크로우	-15648
▁탄생한	-15649
▁토요일	-15650
▁통신사	-15651
▁통째로	-15652
▁트랙에	-15653
▁트랙인	-15654
▁특수한	-15655
▁특징을	-15656
▁특화된	-15657
▁특히나	-15658
▁파생된	-15659
▁파우퍼	-15660
▁파이트	-15661
▁패미컴	-15662
▁포르노	-15663
▁포천시	-15664
▁프로필	-15665
▁플러그	-15666
▁한글화	-15667
▁합천군	-15668
▁해금이	-15669
▁했다면	-15670
▁혁명의	-15671
▁화면에	-15672
▁화성시	-15673
▁회사에	-15674
▁후속곡	-15675
▁휴대용	-15676
▁힘으로	-15677
계리에서	-15678
능력시험	-15679
데미지를	-15680
스트리트	-15681
아일랜드	-15682
영웅전설	-15683
이니만큼	-15684
이라든지	-15685
중에서는	-15686
프로그램	-15687
프로야구	-15688
ancer	-15689
apter	-15690
earch	-15691
thern	-15692
udson	-15693
watch	-15694
▁(198	-15695
▁1904	-15696
▁4423	-15697
▁5000	-15698
▁6.25	-15699
▁AGTH	-15700
▁BATT	-15701
▁DSLR	-15702
▁Easy	-15703
▁Fest	-15704
▁Five	-15705
▁Head	-15706
▁Hold	-15707
▁Java	-15708
▁Jeal	-15709
▁Line	-15710
▁Root	-15711
▁West	-15712
▁cent	-15713
▁hold	-15714
▁keep	-15715
▁pass	-15716
▁talk	-15717
▁{1}{	-15718
▁가능성은	-15719
▁가능하게	-15720
▁강조하는	-15721
▁개설되어	-15722
▁개최되는	-15723
▁것이지만	-15724
▁고로아와	-15725
▁공격력은	-15726
▁교차하고	-15727
▁그냥저냥	-15728
▁기다리고	-15729
▁나온적이	-15730
▁나왔으나	-15731
▁나타났다	-15732
▁나타낸다	-15733
▁난이도와	-15734
▁날아가는	-15735
▁내려오는	-15736
▁넘어갔다	-15737
▁노선으로	-15738
▁달라진다	-15739
▁대다수의	-15740
▁대응하는	-15741
▁대학수학	-15742
▁더군다나	-15743
▁데뷔했다	-15744
▁독자적인	-15745
▁동쪽으로	-15746
▁듀얼코어	-15747
▁들어서는	-15748
▁등지에서	-15749
▁디바이더	-15750
▁로스앤젤	-15751
▁로케이션	-15752
▁롱노트가	-15753
▁메모리를	-15754
▁명실상부	-15755
▁모노레드	-15756
▁미드필더	-15757
▁미묘하게	-15758
▁미사일이	-15759
▁받았는데	-15760
▁발휘하는	-15761
▁발휘한다	-15762
▁보스니아	-15763
▁부문에서	-15764
▁불리기도	-15765
▁사람에게	-15766
▁사랑하는	-15767
▁사용해야	-15768
▁살아남은	-15769
▁설명하고	-15770
▁성공한다	-15771
▁수록곡을	-15772
▁수록했다	-15773
▁스웨덴의	-15774
▁스토리의	-15775
▁스파이더	-15776
▁시작하고	-15777
▁아랍에미	-15778
▁아이템이	-15779
▁아직까지	-15780
▁아키텍처	-15781
▁안정적인	-15782
▁앞으로도	-15783
▁어나더가	-15784
▁어드밴스	-15785
▁영국에서	-15786
▁오리지날	-15787
▁올라왔다	-15788
▁올림픽에	-15789
▁유로니무	-15790
▁유사하다	-15791
▁유토피아	-15792
▁이동하는	-15793
▁이때부터	-15794
▁이전까지	-15795
▁이전에도	-15796
▁입체교차	-15797
▁주축으로	-15798
▁직역하면	-15799
▁참여하는	-15800
▁채보이다	-15801
▁초필살기	-15802
▁최고순위	-15803
▁추가한다	-15804
▁출현하는	-15805
▁코드네임	-15806
▁쿠웨이트	-15807
▁퀄리티가	-15808
▁클리어는	-15809
▁클리어할	-15810
▁타이밍을	-15811
▁통과한다	-15812
▁특이사항	-15813
▁포메이션	-15814
▁포인트가	-15815
▁표시되어	-15816
▁표현이다	-15817
▁프로모션	-15818
▁프린세스	-15819
▁플레이에	-15820
▁필수요소	-15821
▁하나같이	-15822
▁하위호환	-15823
▁하이퍼는	-15824
▁활약으로	-15825
▁회사이다	-15826
르기스스탄	-15827
Sketch	-15828
▁(2013	-15829
▁Flame	-15830
▁Forte	-15831
▁GREEN	-15832
▁HAARP	-15833
▁Metal	-15834
▁Prime	-15835
▁Rough	-15836
▁STAGE	-15837
▁Track	-15838
▁Ultra	-15839
▁alone	-15840
▁while	-15841
▁결정되었다	-15842
▁대구광역시	-15843
▁멀티플레이	-15844
▁무지막지한	-15845
▁분데스리가	-15846
▁사람이라면	-15847
▁사운드트랙	-15848
▁스크래치가	-15849
▁아니었지만	-15850
▁아케이드에	-15851
▁알고리즘을	-15852
▁어째서인지	-15853
▁업데이트를	-15854
▁오케스트라	-15855
▁우승하였다	-15856
▁유저들에게	-15857
▁의도적으로	-15858
▁정상적으로	-15859
▁직접적으로	-15860
▁초창기에는	-15861
▁토너먼트를	-15862
▁하드게이지	-15863
▁해금되었다	-15864
▁현재까지도	-15865
▁Direct	-15866
▁HANABI	-15867
▁League	-15868
▁Vision	-15869
▁height	-15870
▁iPhone	-15871
▁기쁘겠습니다	-15872
▁디시인사이드	-15873
▁우즈베키스탄	-15874
▁커맨더에서는	-15875
▁Records	-15876
▁Univers	-15877
agination	-15878
▁Androids	-15879
▁Jealousy	-15880
▁TOMOSUKE	-15881
▁대학수학능력시험	-15882
▁Everybody	-15883
▁RoughSketch	-15884
%,	-15885
(\	-15886
)/	-15887
3/	-15888
54	-15889
8,	-15890
;;	-15891
==	-15892
FX	-15893
QU	-15894
RR	-15895
YN	-15896
ta	-15897
zi	-15898
▁А	-15899
▁今	-15900
▁괄	-15901
▁돔	-15902
▁론	-15903
▁릭	-15904
▁립	-15905
▁멧	-15906
▁샹	-15907
▁셰	-15908
▁얽	-15909
▁찢	-15910
▁첩	-15911
▁켜	-15912
▁틱	-15913
かな	-15914
さん	-15915
しょ	-15916
たち	-15917
の中	-15918
スト	-15919
가드	-15920
강한	-15921
개다	-15922
거지	-15923
걸로	-15924
겨우	-15925
경비	-15926
계면	-15927
관계	-15928
광고	-15929
구려	-15930
구불	-15931
구축	-15932
기종	-15933
기호	-15934
께끼	-15935
난을	-15936
내가	-15937
네다	-15938
니의	-15939
덱은	-15940
돌프	-15941
되나	-15942
두에	-15943
따라	-15944
라에	-15945
란이	-15946
램프	-15947
러쉬	-15948
로네	-15949
루타	-15950
리브	-15951
마향	-15952
맥을	-15953
무장	-15954
미래	-15955
믹싱	-15956
바닥	-15957
방에	-15958
배가	-15959
배럭	-15960
번길	-15961
본의	-15962
본창	-15963
봐요	-15964
부작	-15965
북로	-15966
블리	-15967
비시	-15968
산동	-15969
석은	-15970
세안	-15971
소에	-15972
쇠를	-15973
순양	-15974
술로	-15975
스나	-15976
스레	-15977
스펜	-15978
시픽	-15979
신용	-15980
신저	-15981
실험	-15982
씨의	-15983
안로	-15984
에요	-15985
오른	-15986
욕을	-15987
운로	-15988
움은	-15989
위팀	-15990
유를	-15991
의회	-15992
인기	-15993
적한	-15994
전략	-15995
정령	-15996
조사	-15997
조에	-15998
주문	-15999
증가	-16000
집이	-16001
쪽이	-16002
착륙	-16003
츠가	-16004
치아	-16005
치에	-16006
카는	-16007
커버	-16008
타마	-16009
탄과	-16010
터에	-16011
턴트	-16012
톤의	-16013
통이	-16014
투표	-16015
틱한	-16016
파의	-16017
파이	-16018
편곡	-16019
평로	-16020
풍이	-16021
플레	-16022
피온	-16023
하늘	-16024
하로	-16025
합을	-16026
해머	-16027
행이	-16028
현리	-16029
현실	-16030
히게	-16031
히며	-16032
.),	-16033
.20	-16034
/90	-16035
310	-16036
386	-16037
555	-16038
All	-16039
Ext	-16040
IDA	-16041
MAL	-16042
ONE	-16043
TEX	-16044
THE	-16045
YPE	-16046
any	-16047
bra	-16048
ida	-16049
iec	-16050
igo	-16051
isk	-16052
led	-16053
ley	-16054
low	-16055
ota	-16056
ray	-16057
rie	-16058
san	-16059
ued	-16060
umm	-16061
uth	-16062
vel	-16063
▁AX	-16064
▁AZ	-16065
▁FP	-16066
▁FR	-16067
▁GA	-16068
▁HF	-16069
▁Id	-16070
▁Ke	-16071
▁MK	-16072
▁OH	-16073
▁PH	-16074
▁Sn	-16075
▁UL	-16076
▁bg	-16077
▁gr	-16078
▁ru	-16079
▁가령	-16080
▁가방	-16081
▁가질	-16082
▁간에	-16083
▁갖게	-16084
▁개틀	-16085
▁갱신	-16086
▁거칠	-16087
▁건축	-16088
▁경악	-16089
▁계곡	-16090
▁계정	-16091
▁고문	-16092
▁고용	-16093
▁고원	-16094
▁고위	-16095
▁골을	-16096
▁공인	-16097
▁관문	-16098
▁관제	-16099
▁교역	-16100
▁국립	-16101
▁군단	-16102
▁군데	-16103
▁굴러	-16104
▁그도	-16105
▁기쁩	-16106
▁깔고	-16107
▁깔아	-16108
▁깨닫	-16109
▁꿈꾸	-16110
▁끊임	-16111
▁끝판	-16112
▁나은	-16113
▁나폴	-16114
▁낙하	-16115
▁남녀	-16116
▁낮고	-16117
▁너는	-16118
▁노는	-16119
▁놀랍	-16120
▁높을	-16121
▁다녔	-16122
▁단단	-16123
▁단말	-16124
▁단백	-16125
▁단절	-16126
▁대함	-16127
▁더글	-16128
▁독재	-16129
▁돌고	-16130
▁동전	-16131
▁동점	-16132
▁되니	-16133
▁땄다	-16134
▁라비	-16135
▁류의	-16136
▁리시	-16137
▁리조	-16138
▁마레	-16139
▁마스	-16140
▁마왕	-16141
▁마저	-16142
▁맞을	-16143
▁맥락	-16144
▁맵이	-16145
▁명단	-16146
▁몰랐	-16147
▁무겁	-16148
▁문장	-16149
▁뭐야	-16150
▁뮤비	-16151
▁미디	-16152
▁미술	-16153
▁미카	-16154
▁밝힌	-16155
▁배제	-16156
▁번에	-16157
▁벌교	-16158
▁베어	-16159
▁변이	-16160
▁변해	-16161
▁보상	-16162
▁보석	-16163
▁부숴	-16164
▁부작	-16165
▁북단	-16166
▁불법	-16167
▁불사	-16168
▁비례	-16169
▁사막	-16170
▁새만	-16171
▁섭외	-16172
▁세레	-16173
▁세븐	-16174
▁소득	-16175
▁쇼핑	-16176
▁수뇌	-16177
▁스냅	-16178
▁스노	-16179
▁스콜	-16180
▁스포	-16181
▁스핀	-16182
▁시모	-16183
▁신장	-16184
▁써도	-16185
▁쓸모	-16186
▁쓸수	-16187
▁아가	-16188
▁아동	-16189
▁아아	-16190
▁악당	-16191
▁악몽	-16192
▁앱을	-16193
▁약점	-16194
▁어상	-16195
▁어퍼	-16196
▁얼티	-16197
▁엣지	-16198
▁여신	-16199
▁여캐	-16200
▁여태	-16201
▁역의	-16202
▁연금	-16203
▁연인	-16204
▁오염	-16205
▁오퍼	-16206
▁올바	-16207
▁올콤	-16208
▁요원	-16209
▁요한	-16210
▁운명	-16211
▁웬디	-16212
▁웬만	-16213
▁윌슨	-16214
▁유고	-16215
▁음모	-16216
▁음이	-16217
▁의지	-16218
▁의회	-16219
▁인종	-16220
▁일꾼	-16221
▁일자	-16222
▁일찌	-16223
▁임페	-16224
▁입구	-16225
▁입수	-16226
▁입힐	-16227
▁있네	-16228
▁있으	-16229
▁장이	-16230
▁저도	-16231
▁적지	-16232
▁전승	-16233
▁전적	-16234
▁절륜	-16235
▁접어	-16236
▁접촉	-16237
▁정교	-16238
▁정읍	-16239
▁종영	-16240
▁주저	-16241
▁줄인	-16242
▁중세	-16243
▁지났	-16244
▁지대	-16245
▁진위	-16246
▁짐승	-16247
▁짙은	-16248
▁짧다	-16249
▁쪽의	-16250
▁차원	-16251
▁철권	-16252
▁쳐야	-16253
▁총점	-16254
▁최단	-16255
▁최면	-16256
▁추상	-16257
▁출품	-16258
▁취임	-16259
▁츠쿠	-16260
▁카토	-16261
▁캠페	-16262
▁커서	-16263
▁커팅	-16264
▁케냐	-16265
▁코에	-16266
▁크래	-16267
▁클린	-16268
▁테리	-16269
▁톱시	-16270
▁트래	-16271
▁팀과	-16272
▁팀원	-16273
▁팔아	-16274
▁패트	-16275
▁퍼펙	-16276
▁페치	-16277
▁편리	-16278
▁평점	-16279
▁포로	-16280
▁포신	-16281
▁포크	-16282
▁표선	-16283
▁풍기	-16284
▁하세	-16285
▁하프	-16286
▁해즈	-16287
▁현금	-16288
▁호응	-16289
▁혼동	-16290
▁화양	-16291
▁화천	-16292
▁환영	-16293
▁후버	-16294
らない	-16295
감으로	-16296
개이다	-16297
거니와	-16298
경기가	-16299
계단이	-16300
교롭게	-16301
국에서	-16302
근거리	-16303
내면서	-16304
네거리	-16305
년으로	-16306
년이다	-16307
노트와	-16308
되어야	-16309
드래곤	-16310
득점을	-16311
라이즈	-16312
라이터	-16313
레인저	-16314
만큼의	-16315
번호를	-16316
베르토	-16317
소리가	-16318
소재지	-16319
시간은	-16320
시까지	-16321
시키지	-16322
씨에게	-16323
였다면	-16324
이기는	-16325
이나마	-16326
인용맵	-16327
있으면	-16328
자라는	-16329
저격총	-16330
주에서	-16331
천면을	-16332
커맨드	-16333
쿠리쿠	-16334
크리스	-16335
프레스	-16336
하니까	-16337
하이오	-16338
해보험	-16339
해져서	-16340
홍마향	-16341
화하는	-16342
-100	-16343
-119	-16344
-821	-16345
/145	-16346
/225	-16347
/500	-16348
REAM	-16349
ates	-16350
back	-16351
blog	-16352
cher	-16353
come	-16354
down	-16355
full	-16356
ican	-16357
ient	-16358
lett	-16359
rett	-16360
rier	-16361
rite	-16362
rome	-16363
tain	-16364
ters	-16365
time	-16366
uman	-16367
yond	-16368
▁(17	-16369
▁1.1	-16370
▁16.	-16371
▁170	-16372
▁2:1	-16373
▁3,4	-16374
▁4.0	-16375
▁4.2	-16376
▁5."	-16377
▁5.0	-16378
▁6."	-16379
▁7."	-16380
▁8."	-16381
▁9."	-16382
▁999	-16383
▁AOL	-16384
▁BNP	-16385
▁CCM	-16386
▁CVL	-16387
▁DAY	-16388
▁GRV	-16389
▁GYO	-16390
▁Haw	-16391
▁Law	-16392
▁Lor	-16393
▁Max	-16394
▁PPS	-16395
▁Que	-16396
▁STE	-16397
▁SUV	-16398
▁SVD	-16399
▁Ste	-16400
▁arm	-16401
▁bro	-16402
▁src	-16403
▁sta	-16404
▁too	-16405
▁top	-16406
▁wel	-16407
▁가득한	-16408
▁가져다	-16409
▁간만에	-16410
▁감독의	-16411
▁개막일	-16412
▁개발에	-16413
▁개조한	-16414
▁거짓말	-16415
▁거치지	-16416
▁걸린다	-16417
▁것보다	-16418
▁것이고	-16419
▁게스트	-16420
▁게임도	-16421
▁겨울의	-16422
▁경우를	-16423
▁경주시	-16424
▁경험이	-16425
▁고릴라	-16426
▁곡사포	-16427
▁공격이	-16428
▁공짜로	-16429
▁관계를	-16430
▁괜찮아	-16431
▁국가별	-16432
▁군위군	-16433
▁그녀가	-16434
▁꺼내서	-16435
▁끌었다	-16436
▁나간다	-16437
▁나기사	-16438
▁내구도	-16439
▁내려오	-16440
▁내부의	-16441
▁내지는	-16442
▁네티즌	-16443
▁노래다	-16444
▁노래와	-16445
▁노선을	-16446
▁높았다	-16447
▁다가가	-16448
▁다음날	-16449
▁단양군	-16450
▁당당히	-16451
▁당하는	-16452
▁대기업	-16453
▁대표곡	-16454
▁데뷔곡	-16455
▁덱으로	-16456
▁듣보잡	-16457
▁들으면	-16458
▁들자면	-16459
▁따른다	-16460
▁떠오른	-16461
▁라우드	-16462
▁라인을	-16463
▁렉싱턴	-16464
▁리그가	-16465
▁마리아	-16466
▁마법을	-16467
▁마음이	-16468
▁만들면	-16469
▁만들지	-16470
▁말로는	-16471
▁먹는다	-16472
▁메카닉	-16473
▁멤버를	-16474
▁모양을	-16475
▁목록에	-16476
▁무너진	-16477
▁문구가	-16478
▁문서가	-16479
▁미개설	-16480
▁미군의	-16481
▁미사카	-16482
▁미연시	-16483
▁미코토	-16484
▁바뀌게	-16485
▁바르셀	-16486
▁박사의	-16487
▁박자는	-16488
▁발매가	-16489
▁발음은	-16490
▁밝혀진	-16491
▁방송사	-16492
▁방송에	-16493
▁벌이는	-16494
▁보컬과	-16495
▁부르며	-16496
▁부제는	-16497
▁불리고	-16498
▁붙이고	-16499
▁브라더	-16500
▁브라운	-16501
▁블록에	-16502
▁빠졌다	-16503
▁사건의	-16504
▁사냥꾼	-16505
▁사례가	-16506
▁사에서	-16507
▁사이가	-16508
▁사정이	-16509
▁상대할	-16510
▁상태다	-16511
▁상태를	-16512
▁상황은	-16513
▁생겨서	-16514
▁생김새	-16515
▁생명을	-16516
▁서스펜	-16517
▁서울역	-16518
▁선보인	-16519
▁선수로	-16520
▁성격을	-16521
▁세트를	-16522
▁세트의	-16523
▁소원을	-16524
▁소중한	-16525
▁소총을	-16526
▁속도도	-16527
▁숫자를	-16528
▁쉬우니	-16529
▁스티븐	-16530
▁승자가	-16531
▁시대를	-16532
▁시부야	-16533
▁시에는	-16534
▁시카고	-16535
▁실상은	-16536
▁심하다	-16537
▁심하면	-16538
▁싱글은	-16539
▁쓰러뜨	-16540
▁아군이	-16541
▁아사키	-16542
▁아스트	-16543
▁아이들	-16544
▁알렉산	-16545
▁알아서	-16546
▁야마토	-16547
▁양평군	-16548
▁에반게	-16549
▁여기로	-16550
▁여성의	-16551
▁연상케	-16552
▁영양군	-16553
▁영웅을	-16554
▁옆으로	-16555
▁오류가	-16556
▁올라왔	-16557
▁완주군	-16558
▁용량이	-16559
▁운영이	-16560
▁원작의	-16561
▁웨스트	-16562
▁위력은	-16563
▁위해선	-16564
▁유니언	-16565
▁유닛은	-16566
▁음색이	-16567
▁의외의	-16568
▁의혹이	-16569
▁이곳에	-16570
▁이기는	-16571
▁이녀석	-16572
▁이득을	-16573
▁이후는	-16574
▁인간은	-16575
▁인기는	-16576
▁인기도	-16577
▁인류가	-16578
▁인류의	-16579
▁인물이	-16580
▁인식이	-16581
▁인형술	-16582
▁일정한	-16583
▁임프레	-16584
▁입히는	-16585
▁잇는다	-16586
▁자격증	-16587
▁잔잔한	-16588
▁쟈칸쟈	-16589
▁전차의	-16590
▁전투가	-16591
▁정도를	-16592
▁정상에	-16593
▁제목인	-16594
▁조각을	-16595
▁존재를	-16596
▁종목이	-16597
▁주의를	-16598
▁죽이고	-16599
▁쥬리나	-16600
▁차량의	-16601
▁차세대	-16602
▁차이점	-16603
▁초능력	-16604
▁출판사	-16605
▁충실한	-16606
▁측에서	-16607
▁치러진	-16608
▁카미가	-16609
▁컬렉션	-16610
▁탄환과	-16611
▁터널을	-16612
▁터지는	-16613
▁투표를	-16614
▁트랙은	-16615
▁트릴로	-16616
▁팀에서	-16617
▁파일로	-16618
▁편곡을	-16619
▁편의점	-16620
▁편이기	-16621
▁평가도	-16622
▁폐막일	-16623
▁포맷이	-16624
▁폭타와	-16625
▁표시가	-16626
▁표현이	-16627
▁프론트	-16628
▁플래그	-16629
▁피처링	-16630
▁픽시브	-16631
▁필요는	-16632
▁한명이	-16633
▁한방에	-16634
▁함선의	-16635
▁합이다	-16636
▁항목이	-16637
▁핵탄두	-16638
▁현실의	-16639
▁형식이	-16640
▁히트를	-16641
는데다가	-16642
이면서도	-16643
이었기에	-16644
적이지만	-16645
주신다면	-16646
차선이다	-16647
차전에서	-16648
통제차량	-16649
판이라고	-16650
포리에서	-16651
.12.2	-16652
Black	-16653
Dream	-16654
Every	-16655
arden	-16656
arest	-16657
atter	-16658
color	-16659
craft	-16660
eleon	-16661
ffect	-16662
force	-16663
oblin	-16664
▁1940	-16665
▁1952	-16666
▁1971	-16667
▁Anti	-16668
▁Away	-16669
▁CFEC	-16670
▁Char	-16671
▁Cran	-16672
▁Dawn	-16673
▁Emer	-16674
▁Full	-16675
▁Gate	-16676
▁July	-16677
▁Keep	-16678
▁Mess	-16679
▁Move	-16680
▁Prod	-16681
▁Pyro	-16682
▁Sent	-16683
▁View	-16684
▁Waza	-16685
▁Ztar	-16686
▁give	-16687
▁hide	-16688
▁real	-16689
▁show	-16690
▁가능한데	-16691
▁개발되어	-16692
▁고등학생	-16693
▁공개했다	-16694
▁공격력과	-16695
▁공격한다	-16696
▁공화국이	-16697
▁구름왕국	-16698
▁구불구불	-16699
▁기록이다	-16700
▁기록하고	-16701
▁기쁩니다	-16702
▁기술이다	-16703
▁기종이다	-16704
▁끊임없이	-16705
▁나오므로	-16706
▁나와있다	-16707
▁느껴진다	-16708
▁다름아닌	-16709
▁달성하면	-16710
▁달성했다	-16711
▁담당한다	-16712
▁대표팀은	-16713
▁등장하기	-16714
▁따지자면	-16715
▁뛰어넘는	-16716
▁라이선스	-16717
▁리믹스가	-16718
▁만들어져	-16719
▁못하였다	-16720
▁바랍니다	-16721
▁바이올린	-16722
▁발생한다	-16723
▁방송에서	-16724
▁벌어지는	-16725
▁보기에는	-16726
▁분류된다	-16727
▁붙어있는	-16728
▁브랜드로	-16729
▁블레이드	-16730
▁생각해서	-16731
▁생물들은	-16732
▁생물들이	-16733
▁선수들의	-16734
▁소녀전선	-16735
▁쇼트트랙	-16736
▁수록곡은	-16737
▁수수께끼	-16738
▁수행한다	-16739
▁스테이션	-16740
▁시간동안	-16741
▁싱글차트	-16742
▁쏟아지는	-16743
▁아이워너	-16744
▁않습니다	-16745
▁않았거나	-16746
▁어렵지는	-16747
▁언젠가는	-16748
▁없어졌다	-16749
▁연결되는	-16750
▁우타이테	-16751
▁유용하게	-16752
▁유저들도	-16753
▁음악이다	-16754
▁이동통신	-16755
▁이식되지	-16756
▁이후부터	-16757
▁인근에서	-16758
▁인지도는	-16759
▁작곡자는	-16760
▁정차한다	-16761
▁제공한다	-16762
▁제작자가	-16763
▁주문으로	-16764
▁중국에서	-16765
▁중기관총	-16766
▁지방선거	-16767
▁진행되는	-16768
▁출연했다	-16769
▁카가미네	-16770
▁카드였다	-16771
▁커맨드를	-16772
▁컨퍼런스	-16773
▁쿠로사와	-16774
▁퀘스트를	-16775
▁평가하는	-16776
▁포함하여	-16777
▁프로덕션	-16778
▁하늘에서	-16779
▁항공기를	-16780
▁호쿠리쿠	-16781
▁홋카이도	-16782
▁히데유키	-16783
라운드부터	-16784
(2014)	-16785
-3-4-5	-16786
asters	-16787
ichard	-16788
ounter	-16789
▁(2011	-16790
▁BASIC	-16791
▁Begin	-16792
▁Brain	-16793
▁Class	-16794
▁Great	-16795
▁Hands	-16796
▁JAPAN	-16797
▁Ready	-16798
▁Techn	-16799
▁Tutor	-16800
▁angel	-16801
▁think	-16802
▁would	-16803
▁가능해졌다	-16804
▁나오자마자	-16805
▁남아프리카	-16806
▁네덜란드의	-16807
▁독립운동가	-16808
▁등장하면서	-16809
▁때문이었다	-16810
▁레가시에서	-16811
▁리밋에서는	-16812
▁미사일이다	-16813
▁백스트리트	-16814
▁수록곡이다	-16815
▁스코어링은	-16816
▁슬라이드가	-16817
▁아이스크림	-16818
▁얼터너티브	-16819
▁에티오피아	-16820
▁우회전하여	-16821
▁유탄발사기	-16822
▁존재하는데	-16823
▁진출했으나	-16824
▁투입되었다	-16825
▁프로듀서로	-16826
▁프로젝트가	-16827
▁획득하였다	-16828
▁후속곡으로	-16829
암삼거리에서	-16830
천삼거리에서	-16831
istance	-16832
▁(2007)	-16833
▁Associ	-16834
▁Atlant	-16835
▁Attack	-16836
▁BATTLE	-16837
▁Captiv	-16838
▁DoomRL	-16839
▁Engine	-16840
▁Ground	-16841
▁Hudson	-16842
▁Normal	-16843
▁Please	-16844
▁Runner	-16845
▁Summer	-16846
▁Zenith	-16847
▁fucked	-16848
▁making	-16849
▁뮤직비디오가	-16850
▁뮤직비디오를	-16851
▁아르헨티나의	-16852
▁업그레이드를	-16853
▁은하영웅전설	-16854
▁인더스트리얼	-16855
▁중앙고속도로	-16856
프레지던트컵의	-16857
▁2012-13	-16858
▁AirPort	-16859
▁Barrett	-16860
▁Challen	-16861
▁Dynamix	-16862
▁Electro	-16863
▁Perfect	-16864
▁Service	-16865
▁perfect	-16866
▁스타크래프트의	-16867
▁호남고속도로와	-16868
▁CONCACAF	-16869
▁Darkness	-16870
▁Electric	-16871
▁Seething	-16872
▁Lightning	-16873
▁Moonlight	-16874
▁Transform	-16875
▁중부내륙고속도로와	-16876
▁Terminator	-16877
!(	-16878
+4	-16879
03	-16880
61	-16881
71	-16882
8:	-16883
94	-16884
Ah	-16885
BR	-16886
EE	-16887
EZ	-16888
FF	-16889
JR	-16890
MD	-16891
NG	-16892
RT	-16893
So	-16894
TC	-16895
UK	-16896
VS	-16897
WC	-16898
br	-16899
mp	-16900
oT	-16901
po	-16902
yp	-16903
▁К	-16904
▁С	-16905
▁み	-16906
▁も	-16907
▁ゆ	-16908
▁マ	-16909
▁時	-16910
▁目	-16911
▁갇	-16912
▁갯	-16913
▁겐	-16914
▁긍	-16915
▁꾀	-16916
▁뉘	-16917
▁님	-16918
▁됨	-16919
▁뚱	-16920
▁솟	-16921
▁슌	-16922
▁슐	-16923
▁쌈	-16924
▁쑈	-16925
▁웜	-16926
▁젖	-16927
▁짱	-16928
▁훼	-16929
いる	-16930
ファ	-16931
ント	-16932
강전	-16933
개통	-16934
거로	-16935
거스	-16936
건반	-16937
겨져	-16938
국민	-16939
국적	-16940
그림	-16941
글이	-16942
기획	-16943
나면	-16944
내어	-16945
냐에	-16946
년과	-16947
년형	-16948
노래	-16949
닐라	-16950
당할	-16951
대도	-16952
대상	-16953
대신	-16954
대원	-16955
댄스	-16956
덕후	-16957
덴티	-16958
돌아	-16959
동방	-16960
됐고	-16961
라레	-16962
라와	-16963
랑이	-16964
렉스	-16965
렙을	-16966
루에	-16967
루엣	-16968
리버	-16969
리쉬	-16970
리히	-16971
림리	-16972
링은	-16973
맨이	-16974
머신	-16975
머의	-16976
메어	-16977
모양	-16978
몬의	-16979
무대	-16980
문제	-16981
뮬러	-16982
민요	-16983
밀한	-16984
받게	-16985
배틀	-16986
벌레	-16987
베리	-16988
벤션	-16989
보라	-16990
보지	-16991
봉면	-16992
블로	-16993
빅스	-16994
산의	-16995
수스	-16996
수취	-16997
숙한	-16998
스포	-16999
시다	-17000
식과	-17001
실신	-17002
안을	-17003
애나	-17004
얀마	-17005
업한	-17006
엔드	-17007
였을	-17008
영덕	-17009
오오	-17010
올라	-17011
와인	-17012
원리	-17013
월경	-17014
으러	-17015
음의	-17016
이건	-17017
장만	-17018
저브	-17019
전동	-17020
정과	-17021
제에	-17022
조종	-17023
종료	-17024
주간	-17025
주쿠	-17026
줄이	-17027
중의	-17028
지휘	-17029
직을	-17030
진구	-17031
진한	-17032
집을	-17033
체에	-17034
출판	-17035
취소	-17036
츠카	-17037
치와	-17038
칸센	-17039
큐브	-17040
클래	-17041
클랜	-17042
태인	-17043
터와	-17044
텐더	-17045
텔레	-17046
트도	-17047
팔로	-17048
팩트	-17049
퍼는	-17050
포읍	-17051
폴트	-17052
표준	-17053
프는	-17054
피드	-17055
피해	-17056
한이	-17057
해로	-17058
해발	-17059
행성	-17060
호와	-17061
후보	-17062
(10	-17063
-09	-17064
-32	-17065
/35	-17066
360	-17067
380	-17068
48,	-17069
???	-17070
Ate	-17071
BER	-17072
BIT	-17073
EGA	-17074
INK	-17075
IST	-17076
NON	-17077
New	-17078
UBY	-17079
afe	-17080
als	-17081
asc	-17082
bye	-17083
edi	-17084
emy	-17085
erp	-17086
ius	-17087
lex	-17088
oes	-17089
ote	-17090
rol	-17091
rop	-17092
▁(6	-17093
▁):	-17094
▁3/	-17095
▁Ag	-17096
▁DG	-17097
▁Da	-17098
▁Fe	-17099
▁GQ	-17100
▁JS	-17101
▁LB	-17102
▁LO	-17103
▁LW	-17104
▁MG	-17105
▁Mo	-17106
▁Na	-17107
▁PA	-17108
▁Tu	-17109
▁UB	-17110
▁UP	-17111
▁Vz	-17112
▁er	-17113
▁{3	-17114
▁가자	-17115
▁각인	-17116
▁간신	-17117
▁간지	-17118
▁강렬	-17119
▁강진	-17120
▁갖춰	-17121
▁개당	-17122
▁거는	-17123
▁격렬	-17124
▁경비	-17125
▁고딕	-17126
▁공백	-17127
▁공성	-17128
▁관절	-17129
▁괜히	-17130
▁교토	-17131
▁구속	-17132
▁구역	-17133
▁국산	-17134
▁군림	-17135
▁그릴	-17136
▁김동	-17137
▁김민	-17138
▁김현	-17139
▁깔린	-17140
▁나도	-17141
▁나토	-17142
▁날이	-17143
▁남는	-17144
▁남미	-17145
▁넘은	-17146
▁높기	-17147
▁느긋	-17148
▁느꼈	-17149
▁니이	-17150
▁달릴	-17151
▁대리	-17152
▁대명	-17153
▁대역	-17154
▁도서	-17155
▁동탄	-17156
▁되찾	-17157
▁두산	-17158
▁듣게	-17159
▁디제	-17160
▁때릴	-17161
▁러쉬	-17162
▁런처	-17163
▁레지	-17164
▁리미	-17165
▁마무	-17166
▁맵의	-17167
▁머무	-17168
▁메리	-17169
▁면허	-17170
▁모집	-17171
▁목격	-17172
▁무늬	-17173
▁무작	-17174
▁무척	-17175
▁물고	-17176
▁물량	-17177
▁미지	-17178
▁미치	-17179
▁박혀	-17180
▁발렌	-17181
▁발언	-17182
▁발칸	-17183
▁방아	-17184
▁방위	-17185
▁배구	-17186
▁배로	-17187
▁배를	-17188
▁벼락	-17189
▁벽을	-17190
▁변박	-17191
▁보령	-17192
▁복구	-17193
▁부딪	-17194
▁분해	-17195
▁비가	-17196
▁비즈	-17197
▁빈번	-17198
▁빔을	-17199
▁빛이	-17200
▁사바	-17201
▁사후	-17202
▁산다	-17203
▁살을	-17204
▁삼국	-17205
▁생일	-17206
▁서열	-17207
▁서치	-17208
▁선포	-17209
▁세력	-17210
▁세리	-17211
▁세월	-17212
▁셀프	-17213
▁소노	-17214
▁순정	-17215
▁순차	-17216
▁슐츠	-17217
▁승차	-17218
▁시바	-17219
▁시인	-17220
▁시흥	-17221
▁신동	-17222
▁신상	-17223
▁신생	-17224
▁신선	-17225
▁신한	-17226
▁십자	-17227
▁아노	-17228
▁앞면	-17229
▁양구	-17230
▁어릴	-17231
▁얻게	-17232
▁엄폐	-17233
▁없지	-17234
▁에코	-17235
▁엔드	-17236
▁엔투	-17237
▁연령	-17238
▁열고	-17239
▁였다	-17240
▁영등	-17241
▁오산	-17242
▁옷을	-17243
▁왕의	-17244
▁외장	-17245
▁우스	-17246
▁우에	-17247
▁울프	-17248
▁원화	-17249
▁위원	-17250
▁위자	-17251
▁유라	-17252
▁은폐	-17253
▁음색	-17254
▁음향	-17255
▁응급	-17256
▁응시	-17257
▁의의	-17258
▁이오	-17259
▁이익	-17260
▁일곱	-17261
▁일방	-17262
▁입학	-17263
▁자라	-17264
▁자사	-17265
▁자위	-17266
▁자칭	-17267
▁적당	-17268
▁전당	-17269
▁전속	-17270
▁전인	-17271
▁정원	-17272
▁조달	-17273
▁조로	-17274
▁조차	-17275
▁종이	-17276
▁주교	-17277
▁주말	-17278
▁주먹	-17279
▁주범	-17280
▁주차	-17281
▁죽여	-17282
▁준드	-17283
▁준말	-17284
▁지는	-17285
▁지형	-17286
▁질문	-17287
▁짤린	-17288
▁쪼개	-17289
▁차를	-17290
▁창간	-17291
▁찾기	-17292
▁처치	-17293
▁청주	-17294
▁초고	-17295
▁최장	-17296
▁추후	-17297
▁축약	-17298
▁취미	-17299
▁치즈	-17300
▁침략	-17301
▁카자	-17302
▁커트	-17303
▁키요	-17304
▁타다	-17305
▁터라	-17306
▁테이	-17307
▁테츠	-17308
▁템포	-17309
▁토시	-17310
▁트레	-17311
▁트렉	-17312
▁특허	-17313
▁티셔	-17314
▁파로	-17315
▁판을	-17316
▁패널	-17317
▁포격	-17318
▁표제	-17319
▁풀필	-17320
▁피가	-17321
▁피격	-17322
▁한가	-17323
▁한장	-17324
▁함포	-17325
▁해운	-17326
▁허브	-17327
▁헤븐	-17328
▁헬싱	-17329
▁협박	-17330
▁형상	-17331
▁호텔	-17332
▁혹평	-17333
▁혼고	-17334
▁화가	-17335
▁후술	-17336
▁훔쳐	-17337
▁휴식	-17338
공격을	-17339
관에서	-17340
군으로	-17341
기술을	-17342
나이트	-17343
네임을	-17344
년대의	-17345
는데도	-17346
드리히	-17347
라든지	-17348
란드는	-17349
랜드가	-17350
렸다고	-17351
루카드	-17352
마리가	-17353
버전의	-17354
번이나	-17355
베니아	-17356
베리아	-17357
병기로	-17358
부분은	-17359
부분을	-17360
부분의	-17361
뿐이다	-17362
순으로	-17363
시간을	-17364
시켜야	-17365
영방송	-17366
조에서	-17367
중이며	-17368
캐스트	-17369
쿠라스	-17370
클라우	-17371
터널이	-17372
테이너	-17373
트리는	-17374
팀에서	-17375
편으로	-17376
프랑스	-17377
하는건	-17378
할만한	-17379
했으니	-17380
했음을	-17381
호선과	-17382
확률로	-17383
회사가	-17384
-135	-17385
/135	-17386
/210	-17387
EMIX	-17388
Girl	-17389
Inst	-17390
King	-17391
Love	-17392
ORTS	-17393
ased	-17394
elly	-17395
ened	-17396
fire	-17397
iano	-17398
ikar	-17399
ique	-17400
iter	-17401
ling	-17402
ones	-17403
stay	-17404
ucer	-17405
▁-10	-17406
▁.22	-17407
▁103	-17408
▁203	-17409
▁318	-17410
▁4."	-17411
▁456	-17412
▁512	-17413
▁550	-17414
▁623	-17415
▁801	-17416
▁817	-17417
▁AGE	-17418
▁ATS	-17419
▁Alt	-17420
▁Any	-17421
▁Aur	-17422
▁BOG	-17423
▁Bal	-17424
▁Ber	-17425
▁CLL	-17426
▁CNo	-17427
▁Chu	-17428
▁Cyc	-17429
▁DNR	-17430
▁Def	-17431
▁FOR	-17432
▁GEN	-17433
▁GTA	-17434
▁GTR	-17435
▁HOT	-17436
▁IWA	-17437
▁Int	-17438
▁Lab	-17439
▁MLG	-17440
▁Mor	-17441
▁OUT	-17442
▁Ord	-17443
▁Own	-17444
▁Phy	-17445
▁Pol	-17446
▁RGB	-17447
▁SIN	-17448
▁Sal	-17449
▁Too	-17450
▁Tot	-17451
▁Why	-17452
▁che	-17453
▁did	-17454
▁fly	-17455
▁fri	-17456
▁{1}	-17457
▁가능할	-17458
▁가면을	-17459
▁가이드	-17460
▁강하고	-17461
▁강화된	-17462
▁거리는	-17463
▁겁니다	-17464
▁경계를	-17465
▁경기에	-17466
▁곡들도	-17467
▁공간을	-17468
▁공격은	-17469
▁공군은	-17470
▁과언이	-17471
▁관리가	-17472
▁관리를	-17473
▁광양시	-17474
▁교향곡	-17475
▁구간과	-17476
▁구조는	-17477
▁규모의	-17478
▁그러던	-17479
▁근육맨	-17480
▁급격히	-17481
▁기능도	-17482
▁기사가	-17483
▁기지를	-17484
▁기체에	-17485
▁끝판왕	-17486
▁나나미	-17487
▁나오던	-17488
▁나이가	-17489
▁남겼다	-17490
▁남자가	-17491
▁넘어갈	-17492
▁넣어서	-17493
▁네임드	-17494
▁노래에	-17495
▁노트는	-17496
▁늘었다	-17497
▁니트로	-17498
▁닉네임	-17499
▁다리가	-17500
▁당시는	-17501
▁대진표	-17502
▁던지는	-17503
▁동전을	-17504
▁동호인	-17505
▁되었기	-17506
▁둘이서	-17507
▁뒤늦게	-17508
▁뒤에도	-17509
▁디즈니	-17510
▁러닝백	-17511
▁레벨의	-17512
▁레코딩	-17513
▁리듬에	-17514
▁마산합	-17515
▁말고도	-17516
▁매직의	-17517
▁메신저	-17518
▁명의가	-17519
▁목숨을	-17520
▁목적을	-17521
▁무게는	-17522
▁무게를	-17523
▁물량이	-17524
▁미군이	-17525
▁미션팩	-17526
▁박격포	-17527
▁박사가	-17528
▁반자동	-17529
▁배경에	-17530
▁배리어	-17531
▁배치는	-17532
▁백두대	-17533
▁백스핀	-17534
▁밴드가	-17535
▁별명은	-17536
▁병기로	-17537
▁본래는	-17538
▁부대가	-17539
▁부분과	-17540
▁북한은	-17541
▁불렸다	-17542
▁불편한	-17543
▁붉은색	-17544
▁비싸다	-17545
▁비트에	-17546
▁빨라서	-17547
▁사랑에	-17548
▁삼척시	-17549
▁삿포로	-17550
▁상남면	-17551
▁상업지	-17552
▁상태에	-17553
▁새만금	-17554
▁생각한	-17555
▁생물도	-17556
▁서버가	-17557
▁서포트	-17558
▁섞어서	-17559
▁성우를	-17560
▁성향의	-17561
▁세계가	-17562
▁세상에	-17563
▁세상의	-17564
▁수류탄	-17565
▁스킬은	-17566
▁스탠드	-17567
▁스트리	-17568
▁승격을	-17569
▁승점은	-17570
▁시기가	-17571
▁시멘트	-17572
▁시작할	-17573
▁시크릿	-17574
▁실루엣	-17575
▁실리지	-17576
▁싱어송	-17577
▁싶다고	-17578
▁아직은	-17579
▁악랄한	-17580
▁않다는	-17581
▁앞세워	-17582
▁애프터	-17583
▁약하다	-17584
▁어느새	-17585
▁어설트	-17586
▁얻어맞	-17587
▁얼티밋	-17588
▁업무를	-17589
▁에디션	-17590
▁엑설런	-17591
▁여성향	-17592
▁역관절	-17593
▁역전승	-17594
▁역할은	-17595
▁연금술	-17596
▁연주한	-17597
▁영어를	-17598
▁영웅이	-17599
▁영원한	-17600
▁영향이	-17601
▁오디오	-17602
▁오타쿠	-17603
▁오프셋	-17604
▁올라갔	-17605
▁올라오	-17606
▁완성된	-17607
▁용량을	-17608
▁우월한	-17609
▁우위를	-17610
▁워리어	-17611
▁원인은	-17612
▁원인이	-17613
▁원화가	-17614
▁위치가	-17615
▁유나이	-17616
▁유니크	-17617
▁유닛인	-17618
▁유형을	-17619
▁음악가	-17620
▁음원이	-17621
▁응원단	-17622
▁의성군	-17623
▁익산시	-17624
▁일본에	-17625
▁일찌감	-17626
▁장난감	-17627
▁재미가	-17628
▁전력을	-17629
▁전차를	-17630
▁접근할	-17631
▁정도만	-17632
▁정식명	-17633
▁정치인	-17634
▁제작은	-17635
▁제품이	-17636
▁조선의	-17637
▁조종사	-17638
▁존재할	-17639
▁주의가	-17640
▁줄었다	-17641
▁지나는	-17642
▁지리산	-17643
▁지정한	-17644
▁지키고	-17645
▁진출이	-17646
▁차체를	-17647
▁찾아오	-17648
▁초기의	-17649
▁초보자	-17650
▁칼리지	-17651
▁커스터	-17652
▁컨셉은	-17653
▁코너가	-17654
▁코드가	-17655
▁코지마	-17656
▁쿼터백	-17657
▁클럽의	-17658
▁타격을	-17659
▁페드로	-17660
▁평이한	-17661
▁표기를	-17662
▁피규어	-17663
▁필두로	-17664
▁필요로	-17665
▁필요할	-17666
▁하워드	-17667
▁하이드	-17668
▁하즈키	-17669
▁할만한	-17670
▁해보면	-17671
▁해체된	-17672
▁현실은	-17673
▁홍보를	-17674
▁화면이	-17675
▁환자가	-17676
▁활약할	-17677
▁후라비	-17678
▁후살이	-17679
▁희망을	-17680
교롭게도	-17681
난이도는	-17682
년까지의	-17683
년대부터	-17684
덱에서는	-17685
라운드는	-17686
버전으로	-17687
수취요소	-17688
시즌에는	-17689
이다보니	-17690
하기에는	-17691
하였다가	-17692
ALLEN	-17693
IENCE	-17694
ITION	-17695
acing	-17696
annel	-17697
embed	-17698
ollow	-17699
plete	-17700
touch	-17701
▁11."	-17702
▁1132	-17703
▁1200	-17704
▁1918	-17705
▁1924	-17706
▁1973	-17707
▁Ball	-17708
▁Base	-17709
▁Conc	-17710
▁Dead	-17711
▁EVOL	-17712
▁Fant	-17713
▁Gold	-17714
▁HERO	-17715
▁John	-17716
▁RAVE	-17717
▁RUBY	-17718
▁Seas	-17719
▁Shit	-17720
▁Stay	-17721
▁Turn	-17722
▁VIVE	-17723
▁Vamp	-17724
▁Want	-17725
▁free	-17726
▁into	-17727
▁live	-17728
▁once	-17729
▁type	-17730
▁가능했다	-17731
▁간격으로	-17732
▁간접연결	-17733
▁개그콘서	-17734
▁개인차에	-17735
▁개최하게	-17736
▁게임들을	-17737
▁게임이나	-17738
▁경우에도	-17739
▁고갯길을	-17740
▁곡이라는	-17741
▁공격적인	-17742
▁공식으로	-17743
▁공장에서	-17744
▁구체적인	-17745
▁국도이다	-17746
▁기재되어	-17747
▁내려갔다	-17748
▁내려온다	-17749
▁노래이다	-17750
▁니이하라	-17751
▁달려있다	-17752
▁당신에게	-17753
▁데스크탑	-17754
▁데이비드	-17755
▁도로이다	-17756
▁동영상을	-17757
▁되어버린	-17758
▁디스카드	-17759
▁랜덤으로	-17760
▁리타이어	-17761
▁마나비용	-17762
▁메커니즘	-17763
▁모빌슈트	-17764
▁목소리로	-17765
▁못했지만	-17766
▁반복되는	-17767
▁받았으며	-17768
▁발동비용	-17769
▁방면으로	-17770
▁방법이다	-17771
▁번호이다	-17772
▁보다시피	-17773
▁부족수다	-17774
▁분야에서	-17775
▁분위기에	-17776
▁붙어있다	-17777
▁사용했던	-17778
▁살아있는	-17779
▁생물이나	-17780
▁샤쿠라스	-17781
▁서쪽으로	-17782
▁선수에게	-17783
▁손꼽히는	-17784
▁수록곡이	-17785
▁스파르타	-17786
▁스페인어	-17787
▁스페인의	-17788
▁시스템은	-17789
▁시원하게	-17790
▁시작되는	-17791
▁시점으로	-17792
▁시즌부터	-17793
▁실제로도	-17794
▁아니라는	-17795
▁아스팔트	-17796
▁않으므로	-17797
▁앨범이자	-17798
▁야마모토	-17799
▁없었으나	-17800
▁여기서도	-17801
▁오하이오	-17802
▁원작에서	-17803
▁유사하게	-17804
▁유저라면	-17805
▁음원으로	-17806
▁이벤트가	-17807
▁이벤트의	-17808
▁이어지고	-17809
▁인조인간	-17810
▁일어나지	-17811
▁임팩트가	-17812
▁있었다는	-17813
▁자이언츠	-17814
▁작곡했다	-17815
▁장르명은	-17816
▁장면에서	-17817
▁장비하고	-17818
▁전장으로	-17819
▁접속도로	-17820
▁정신나간	-17821
▁정차하는	-17822
▁제작자는	-17823
▁제작했다	-17824
▁존재하고	-17825
▁좁아진다	-17826
▁준우승팀	-17827
▁중복된다	-17828
▁증가한다	-17829
▁지나면서	-17830
▁지속물을	-17831
▁직전까지	-17832
▁참가하게	-17833
▁초반부의	-17834
▁추방한다	-17835
▁축구선수	-17836
▁출연하는	-17837
▁출현한다	-17838
▁치렀으며	-17839
▁카를로스	-17840
▁카미가와	-17841
▁카운터로	-17842
▁커맨더로	-17843
▁클라우드	-17844
▁타이베이	-17845
▁파키스탄	-17846
▁파트에서	-17847
▁판매량이	-17848
▁포함된다	-17849
▁프랑스어	-17850
▁플라스틱	-17851
▁하고있다	-17852
▁하였으며	-17853
▁한국에선	-17854
▁항공모함	-17855
▁후속곡인	-17856
▁히로유키	-17857
버스터미널	-17858
부리그에서	-17859
애니메이션	-17860
(2013)	-17861
/30/40	-17862
Meleon	-17863
ground	-17864
icious	-17865
ograph	-17866
▁Anime	-17867
▁Beats	-17868
▁DEEMO	-17869
▁Flash	-17870
▁Hyper	-17871
▁Offic	-17872
▁Point	-17873
▁River	-17874
▁Stand	-17875
▁Steel	-17876
▁Train	-17877
▁being	-17878
▁gonna	-17879
▁hello	-17880
▁smile	-17881
▁sweet	-17882
▁국가대표팀	-17883
▁라이센스를	-17884
▁부분에서는	-17885
▁비스턴캐릭	-17886
▁빈티지에서	-17887
▁사이드와인	-17888
▁수록되었고	-17889
▁스턴캐릭터	-17890
▁스트라이크	-17891
▁승리팀에게	-17892
▁업데이트된	-17893
▁오스트레일	-17894
▁오토플레이	-17895
▁온라인에서	-17896
▁올림픽이다	-17897
▁익숙해지면	-17898
▁일러스트와	-17899
▁일시적으로	-17900
▁조별예선은	-17901
▁줄어들었다	-17902
▁컨스에서는	-17903
▁콘서트에서	-17904
▁포함되었다	-17905
▁프리드리히	-17906
▁해체되었다	-17907
곡삼거리에서	-17908
교삼거리에서	-17909
수취요소소득	-17910
천교차로에서	-17911
UDIENCE	-17912
omorrow	-17913
▁(2005)	-17914
▁Active	-17915
▁Broadc	-17916
▁Planar	-17917
▁Square	-17918
▁Studio	-17919
▁VOLTEX	-17920
▁Weapon	-17921
▁dreams	-17922
▁대전차미사일	-17923
▁라브니카로의	-17924
▁세종특별자치	-17925
▁전환마나비용	-17926
▁Chapter	-17927
▁Dearest	-17928
▁Eternal	-17929
▁Extreme	-17930
▁Feeling	-17931
▁Friends	-17932
▁Warrior	-17933
▁bottles	-17934
▁groovin	-17935
▁Advanced	-17936
▁Atlantis	-17937
▁CaptivAte	-17938
▁DreamHack	-17939
▁beatnation	-17940
(8	-17941
.-	-17942
0"	-17943
6.	-17944
84	-17945
91	-17946
:5	-17947
CK	-17948
En	-17949
GL	-17950
GN	-17951
MC	-17952
OO	-17953
Oh	-17954
Pl	-17955
YU	-17956
ZE	-17957
]]	-17958
ca	-17959
ga	-17960
ha	-17961
ko	-17962
ms	-17963
sv	-17964
ua	-17965
ан	-17966
▁こ	-17967
▁イ	-17968
▁中	-17969
▁何	-17970
▁誰	-17971
▁깐	-17972
▁꿰	-17973
▁닷	-17974
▁딘	-17975
▁럼	-17976
▁봇	-17977
▁솜	-17978
▁싣	-17979
▁쐐	-17980
▁엽	-17981
▁쳤	-17982
▁텅	-17983
▁햇	-17984
▁힌	-17985
けん	-17986
しま	-17987
しゃ	-17988
ゆく	-17989
バー	-17990
ビー	-17991
ラン	-17992
ルー	-17993
太郎	-17994
月の	-17995
가기	-17996
값을	-17997
거진	-17998
게이	-17999
겠네	-18000
경의	-18001
계엄	-18002
계층	-18003
고한	-18004
공학	-18005
관련	-18006
관에	-18007
광로	-18008
구동	-18009
국도	-18010
국립	-18011
기다	-18012
날이	-18013
났던	-18014
느라	-18015
는가	-18016
님을	-18017
달라	-18018
더러	-18019
데레	-18020
도읍	-18021
두근	-18022
뒤에	-18023
들고	-18024
들아	-18025
디브	-18026
디지	-18027
때문	-18028
또한	-18029
레니	-18030
렐라	-18031
론의	-18032
루는	-18033
류로	-18034
르도	-18035
르드	-18036
리따	-18037
린이	-18038
림로	-18039
마데	-18040
만명	-18041
만히	-18042
매기	-18043
먹고	-18044
메일	-18045
몬드	-18046
몬이	-18047
미노	-18048
미와	-18049
반을	-18050
반응	-18051
방조	-18052
버그	-18053
버드	-18054
보며	-18055
볼버	-18056
부족	-18057
부턴	-18058
분기	-18059
분의	-18060
분침	-18061
분한	-18062
블이	-18063
사전	-18064
사진	-18065
삿갓	-18066
서야	-18067
석의	-18068
선풍	-18069
소환	-18070
수인	-18071
수치	-18072
스도	-18073
승전	-18074
시청	-18075
신로	-18076
실이	-18077
심이	-18078
싸움	-18079
아도	-18080
아야	-18081
아에	-18082
악장	-18083
약품	-18084
양양	-18085
얼빈	-18086
여왕	-18087
영의	-18088
예방	-18089
온은	-18090
용인	-18091
우라	-18092
운을	-18093
유증	-18094
음은	-18095
이런	-18096
인터	-18097
일자	-18098
자유	-18099
전력	-18100
전화	-18101
정찰	-18102
조된	-18103
죽면	-18104
중단	-18105
지속	-18106
지오	-18107
차별	-18108
창에	-18109
처가	-18110
철이	-18111
체액	-18112
초인	-18113
촌리	-18114
출처	-18115
컵을	-18116
케이	-18117
코우	-18118
코타	-18119
큐리	-18120
탄은	-18121
탐정	-18122
터키	-18123
통을	-18124
투르	-18125
투를	-18126
투어	-18127
툭튀	-18128
트루	-18129
티니	-18130
패키	-18131
페이	-18132
프에	-18133
플랜	-18134
피오	-18135
학원	-18136
합병	-18137
해왔	-18138
헤이	-18139
혁명	-18140
형과	-18141
호크	-18142
홀딩	-18143
환을	-18144
훈련	-18145
훈의	-18146
-21	-18147
-25	-18148
/70	-18149
/95	-18150
101	-18151
315	-18152
560	-18153
700	-18154
ARS	-18155
Don	-18156
EST	-18157
Har	-18158
IRC	-18159
MER	-18160
Mar	-18161
RAM	-18162
WOR	-18163
War	-18164
ZZA	-18165
amb	-18166
axy	-18167
bro	-18168
fer	-18169
hem	-18170
ief	-18171
ika	-18172
irt	-18173
ods	-18174
ona	-18175
ova	-18176
rab	-18177
ram	-18178
ran	-18179
rex	-18180
suk	-18181
svg	-18182
uby	-18183
uno	-18184
urv	-18185
uzz	-18186
wyn	-18187
▁4%	-18188
▁::	-18189
▁CP	-18190
▁Eb	-18191
▁FF	-18192
▁GW	-18193
▁GX	-18194
▁Ga	-18195
▁JC	-18196
▁KC	-18197
▁KE	-18198
▁Ka	-18199
▁MF	-18200
▁NS	-18201
▁RC	-18202
▁SA	-18203
▁XC	-18204
▁YA	-18205
▁gu	-18206
▁iT	-18207
▁kn	-18208
▁ma	-18209
▁ne	-18210
▁가전	-18211
▁가평	-18212
▁각도	-18213
▁갈레	-18214
▁강요	-18215
▁거울	-18216
▁걸릴	-18217
▁것들	-18218
▁고교	-18219
▁고백	-18220
▁고성	-18221
▁고장	-18222
▁곡만	-18223
▁골득	-18224
▁골렘	-18225
▁공감	-18226
▁공공	-18227
▁공지	-18228
▁과격	-18229
▁광덕	-18230
▁괴멸	-18231
▁괴수	-18232
▁구상	-18233
▁규정	-18234
▁급커	-18235
▁급행	-18236
▁긍정	-18237
▁기자	-18238
▁길은	-18239
▁길티	-18240
▁김성	-18241
▁깃발	-18242
▁깔면	-18243
▁꼬아	-18244
▁난잡	-18245
▁날라	-18246
▁남기	-18247
▁내린	-18248
▁너도	-18249
▁노려	-18250
▁노예	-18251
▁녹화	-18252
▁놈이	-18253
▁니가	-18254
▁단색	-18255
▁대니	-18256
▁데님	-18257
▁도움	-18258
▁동결	-18259
▁동기	-18260
▁동명	-18261
▁두뇌	-18262
▁두는	-18263
▁둘은	-18264
▁뒷면	-18265
▁듀크	-18266
▁득실	-18267
▁등재	-18268
▁땅을	-18269
▁뛰고	-18270
▁라며	-18271
▁라지	-18272
▁래퍼	-18273
▁램프	-18274
▁랩을	-18275
▁로리	-18276
▁로보	-18277
▁리즈	-18278
▁리콜	-18279
▁마릴	-18280
▁마즈	-18281
▁마천	-18282
▁막지	-18283
▁만능	-18284
▁만드	-18285
▁말려	-18286
▁맛을	-18287
▁매칭	-18288
▁맥도	-18289
▁맹세	-18290
▁명백	-18291
▁명을	-18292
▁몇개	-18293
▁모로	-18294
▁몰래	-18295
▁무거	-18296
▁무식	-18297
▁묻힌	-18298
▁미나	-18299
▁미네	-18300
▁미즈	-18301
▁미키	-18302
▁미하	-18303
▁미해	-18304
▁바디	-18305
▁박진	-18306
▁반발	-18307
▁반트	-18308
▁방출	-18309
▁방치	-18310
▁방탄	-18311
▁배가	-18312
▁백인	-18313
▁백지	-18314
▁백화	-18315
▁벌써	-18316
▁보건	-18317
▁보관	-18318
▁보낼	-18319
▁복용	-18320
▁복제	-18321
▁불펍	-18322
▁블로	-18323
▁비극	-18324
▁비욘	-18325
▁뿌려	-18326
▁사자	-18327
▁산외	-18328
▁산을	-18329
▁상부	-18330
▁색은	-18331
▁색채	-18332
▁선출	-18333
▁설도	-18334
▁섬진	-18335
▁세로	-18336
▁섹스	-18337
▁센세	-18338
▁셋째	-18339
▁송정	-18340
▁송파	-18341
▁쉽기	-18342
▁시체	-18343
▁식물	-18344
▁신리	-18345
▁실내	-18346
▁실드	-18347
▁실종	-18348
▁쐐기	-18349
▁아부	-18350
▁아자	-18351
▁아작	-18352
▁아크	-18353
▁악보	-18354
▁악수	-18355
▁안의	-18356
▁안테	-18357
▁알바	-18358
▁알칸	-18359
▁앞글	-18360
▁양분	-18361
▁양이	-18362
▁얻지	-18363
▁엄마	-18364
▁엇갈	-18365
▁에픽	-18366
▁여느	-18367
▁여전	-18368
▁열어	-18369
▁영양	-18370
▁영토	-18371
▁예가	-18372
▁예약	-18373
▁오가	-18374
▁오로	-18375
▁오색	-18376
▁옵티	-18377
▁욕구	-18378
▁용량	-18379
▁우린	-18380
▁우정	-18381
▁운송	-18382
▁울진	-18383
▁워독	-18384
▁워드	-18385
▁워커	-18386
▁원문	-18387
▁원시	-18388
▁원주	-18389
▁원통	-18390
▁원형	-18391
▁원활	-18392
▁위기	-18393
▁유독	-18394
▁유틸	-18395
▁유포	-18396
▁육박	-18397
▁음식	-18398
▁음을	-18399
▁이럴	-18400
▁이며	-18401
▁이슬	-18402
▁이을	-18403
▁이재	-18404
▁이쯤	-18405
▁인데	-18406
▁인명	-18407
▁인접	-18408
▁일직	-18409
▁임금	-18410
▁임재	-18411
▁입상	-18412
▁자렴	-18413
▁자바	-18414
▁자치	-18415
▁재출	-18416
▁재탕	-18417
▁적대	-18418
▁전담	-18419
▁절정	-18420
▁절판	-18421
▁정반	-18422
▁정복	-18423
▁조기	-18424
▁조롱	-18425
▁조병	-18426
▁조슈	-18427
▁좌측	-18428
▁주워	-18429
▁주특	-18430
▁죽고	-18431
▁중시	-18432
▁중형	-18433
▁지목	-18434
▁지분	-18435
▁짜증	-18436
▁쫓아	-18437
▁찰스	-18438
▁창조	-18439
▁철저	-18440
▁청풍	-18441
▁쳐다	-18442
▁초강	-18443
▁초심	-18444
▁총괄	-18445
▁최후	-18446
▁축제	-18447
▁출제	-18448
▁충북	-18449
▁취득	-18450
▁츠바	-18451
▁치바	-18452
▁칼을	-18453
▁캐롤	-18454
▁캐시	-18455
▁캐터	-18456
▁컴백	-18457
▁콜드	-18458
▁쿠소	-18459
▁쿠프	-18460
▁퀴즈	-18461
▁크지	-18462
▁탄막	-18463
▁탐구	-18464
▁탐험	-18465
▁토스	-18466
▁토요	-18467
▁토이	-18468
▁토키	-18469
▁통용	-18470
▁튜너	-18471
▁파산	-18472
▁파크	-18473
▁판쓸	-18474
▁팔라	-18475
▁팔린	-18476
▁팬이	-18477
▁팬티	-18478
▁퍼져	-18479
▁펀치	-18480
▁평안	-18481
▁평일	-18482
▁포일	-18483
▁풀린	-18484
▁피부	-18485
▁하려	-18486
▁한강	-18487
▁할때	-18488
▁함대	-18489
▁해골	-18490
▁해머	-18491
▁해명	-18492
▁형편	-18493
▁혜택	-18494
▁호르	-18495
▁호의	-18496
▁홀로	-18497
▁휴게	-18498
▁히비	-18499
▁히타	-18500
▁히토	-18501
れない	-18502
ション	-18503
거라고	-18504
거리며	-18505
관으로	-18506
그래도	-18507
그래피	-18508
기적인	-18509
끼리의	-18510
놓는다	-18511
느냐는	-18512
니스의	-18513
대에게	-18514
동으로	-18515
드라마	-18516
리카락	-18517
리카와	-18518
립니다	-18519
메리카	-18520
메이드	-18521
멜로디	-18522
모바일	-18523
문제로	-18524
바이트	-18525
박물관	-18526
받았던	-18527
발비로	-18528
버리자	-18529
버전을	-18530
번호는	-18531
불명의	-18532
서비스	-18533
선수권	-18534
순환로	-18535
았다고	-18536
았다는	-18537
었기에	-18538
일리언	-18539
있다고	-18540
장갑차	-18541
적이지	-18542
전투기	-18543
주시면	-18544
중에선	-18545
차대전	-18546
프에서	-18547
한정반	-18548
해주고	-18549
해준다	-18550
했거나	-18551
했을때	-18552
활동을	-18553
-6-7	-18554
-8-9	-18555
2015	-18556
7200	-18557
ANGE	-18558
Good	-18559
MOON	-18560
OCUS	-18561
TACK	-18562
acOS	-18563
andy	-18564
ania	-18565
appy	-18566
asia	-18567
asty	-18568
ayer	-18569
eckl	-18570
ells	-18571
head	-18572
iser	-18573
onor	-18574
orge	-18575
pert	-18576
ping	-18577
pire	-18578
ront	-18579
uper	-18580
vent	-18581
vest	-18582
ware	-18583
▁.45	-18584
▁1/3	-18585
▁119	-18586
▁155	-18587
▁2-1	-18588
▁3.1	-18589
▁4.4	-18590
[...]
